[PAD]
[UNK]
[CLS]
[SEP]
[MASK]
!
"
#
$
%
&
'
(
)
*
+
,
-
.
/
0
1
2
3
4
5
6
7
8
9
:
;
=
?
@
A
B
C
D
E
F
G
H
I
J
K
L
M
N
O
P
Q
R
S
T
U
V
W
X
Y
Z
[
\
]
^
_
`
a
b
c
d
e
f
g
h
i
j
k
l
m
n
o
p
q
r
s
t
u
v
w
x
y
z
{
|
}
~
£
¤
¦
§
«
¬
®
°
±
²
³
´
µ
·
¹
»
½
Á
Â
Ä
Å
Ç
É
Î
Ó
Ö
×
Ø
Ú
Ü
ß
à
á
â
ã
ä
å
æ
ç
è
é
ê
ë
ì
í
î
ï
ð
ñ
ò
ó
ô
õ
ö
÷
ø
ù
ú
û
ü
ý
þ
Ā
ā
ă
ą
ć
Č
č
Đ
đ
Ē
ē
ė
ę
ě
ğ
ħ
ī
İ
ı
Ł
ł
ń
ň
ŋ
Ō
ō
ŏ
ő
œ
ř
Ś
ś
Ş
ş
Š
š
ū
ŭ
ź
Ż
ż
Ž
ž
Ə
ƒ
ǎ
ǐ
ǒ
ǔ
ǰ
ș
ț
ɐ
ɑ
ɒ
ɔ
ə
ɛ
ɡ
ɣ
ɪ
ɾ
ʁ
ʃ
ʊ
ʒ
ʰ
ʻ
ʼ
ʾ
ʿ
ˈ
ˌ
ː
˓
˚
́
̃
̎
Α
Β
Γ
Δ
Ε
Θ
Ι
Κ
Λ
Μ
Ν
Ο
Π
Σ
Τ
Φ
Ω
ά
έ
ή
ί
α
β
γ
δ
ε
ζ
η
θ
ι
κ
λ
μ
ν
ξ
ο
π
ρ
ς
σ
τ
υ
φ
χ
ψ
ω
ό
ύ
ώ
І
А
Б
В
Г
Д
Е
Ж
З
И
К
Л
М
Н
О
П
Р
С
Т
У
Ф
Х
Ц
Ч
Ш
Э
Ю
Я
а
б
в
г
д
е
ж
з
и
й
к
л
м
н
о
п
р
с
т
у
ф
х
ц
ч
ш
щ
ъ
ы
ь
э
ю
я
ё
і
ў
ғ
Қ
қ
ү
ҳ
ҷ
ә
ө
Ա
Բ
Գ
Դ
Ե
Զ
Է
Թ
Ժ
Ի
Լ
Խ
Ծ
Կ
Հ
Ղ
Մ
Յ
Ն
Շ
Ո
Չ
Պ
Ջ
Ռ
Ս
Վ
Տ
Փ
Ք
Օ
Ֆ
ա
բ
գ
դ
ե
զ
է
թ
ժ
ի
լ
խ
ծ
կ
հ
ձ
ղ
ճ
մ
յ
ն
շ
ո
չ
պ
ջ
ռ
ս
վ
տ
ր
ց
ւ
փ
ք
ֆ
և
ְ
ִ
ֵ
ֶ
ַ
ָ
ֹ
ּ
ׁ
א
ב
ג
ד
ה
ו
ז
ח
ט
י
כ
ל
ם
מ
ן
נ
ס
ע
פ
צ
ק
ר
ש
ת
،
؛
؟
ء
آ
أ
ؤ
إ
ئ
ا
ب
ة
ت
ث
ج
ح
خ
د
ذ
ر
ز
س
ش
ص
ض
ط
ظ
ع
غ
ـ
ف
ق
ك
ل
م
ن
ه
و
ى
ي
ً
ٌ
ٍ
َ
ُ
ِ
ّ
ْ
ٓ
ٔ
ٚ
ٛ
٠
١
٢
٣
٤
٥
٦
٧
٨
٩
٪
٫
٬
٭
ٰ
ٱ
ٴ
ٹ
پ
ځ
څ
چ
ڕ
ژ
ښ
ڤ
ک
ګ
ڭ
گ
ڵ
ں
ھ
ۀ
ہ
ۂ
ۆ
ۇ
ۉ
ۊ
ۋ
ی
ێ
ې
ے
۔
ە
ۡ
۰
۱
۲
۳
۴
۵
۶
۷
۸
۹
ܐ
ܕ
ܘ
ܝ
ܡ
ܢ
ܪ
ं
अ
क
ग
च
ज
ड
ण
त
द
न
प
ब
भ
म
य
र
ल
व
श
ष
स
ह
ा
ि
ी
ु
े
ो
्
।
ং
অ
আ
ই
উ
এ
ও
ক
খ
গ
চ
ছ
জ
ট
ণ
ত
থ
দ
ধ
ন
প
ফ
ব
ভ
ম
য
র
ল
শ
ষ
স
হ
়
া
ি
ী
ু
ে
ো
্
য়
்
ก
ง
ด
ต
ท
น
บ
พ
ม
ย
ร
ล
ว
ส
อ
ั
า
ิ
ี
ุ
เ
་
ོ
ა
ბ
გ
დ
ე
ვ
ზ
თ
ი
კ
ლ
მ
ნ
ო
რ
ს
ტ
უ
ფ
ქ
შ
ძ
ხ
᠋
ᠠ
ᠡ
ᠢ
ᠣ
ᠤ
ᠥ
ᠦ
ᠨ
ᠩ
ᠪ
ᠬ
ᠭ
ᠮ
ᠯ
ᠰ
ᠲ
ᠳ
ᠴ
ᠵ
ᠶ
ᠷ
ᴗ
ḥ
ḫ
ṇ
ṛ
ṣ
ṭ
ṯ
ἀ
Ἀ
ῖ
‐
‑
–
—
‘
’
‚
“
”
†
‡
•
…
′
″
‹
›
₂
€
ℓ
←
↑
→
↵
⇒
∂
∆
∈
−
∗
√
∞
∧
∨
∪
≈
≠
≡
≤
≥
⊃
⊕
⋅
─
━
■
□
▪
◉
○
◌
●
☃
☉
♠
♭
♯
⟨
⟩
、
《
》
『
』
〮
い
う
か
き
く
さ
し
す
た
ち
て
と
な
に
の
は
ま
ら
り
る
ん
ア
イ
ウ
カ
ク
グ
コ
シ
ジ
ス
タ
ダ
ッ
ト
ド
ナ
ニ
フ
マ
ミ
ム
ラ
リ
ル
レ
ロ
ン
・
ー
一
三
上
世
中
二
五
京
人
会
元
八
公
北
区
南
县
周
和
国
國
地
城
士
大
天
太
女
子
学
安
家
小
山
川
州
市
平
年
式
文
新
日
明
朝
木
本
李
東
松
武
水
江
河
海
王
生
田
皇
県
石
社
神
秦
行
西
語
道
郎
部
都
金
陽
馬
高
고
국
군
기
김
대
도
릉
리
문
부
사
성
시
신
아
왕
원
의
이
인
장
정
주
지
한
ﮐ
ﯼ
ﯽ
ﯾ
ﯿ
﴾
﴿
ﷲ
︎
ﺍ
ﺎ
ﺑ
ﺖ
ﺗ
ﺘ
ﺧ
ﺩ
ﺪ
ﺭ
ﺮ
ﺯ
ﺰ
ﺳ
ﺴ
ﺷ
ﺸ
ﻓ
ﻟ
ﻠ
ﻣ
ﻤ
ﻥ
ﻦ
ﻧ
ﻨ
ﻩ
ﻪ
ﻫ
ﻭ
ﻮ
ﻳ
ﻴ
（
）
，
￼
𐎠
𐎼
𐬀
𐬁
𐬆
𐬌
𐬎
𐬙
𐬨
𐬭
𐬵
𐭠
𐭥
𐭩
##۲
##۳
##۶
##و
##ر
##ل
##ق
##م
##ت
##ا
##س
##ی
##ن
##چ
##ب
##ئ
##ف
##e
##l
##a
##m
##p
##i
##t
##r
##c
##d
##گ
##ِ
##د
##ش
##u
##h
##b
##ه
##3
##s
##n
##9
##R
##F
##2
##5
##آ
##ژ
##َ
##ز
##O
##L
##S
##N
##ع
##ة
##پ
##۱
##۹
##ک
##g
##o
##k
##ث
##0
##Q
##1
##خ
##ۇ
##ط
##ř
##ص
##۵
##E
##A
##H
##۰
##ح
##ُ
##8
##z
##ٔ
##ذ
##۷
##۴
##W
##D
##а
##ّ
##6
##7
##v
##α
##λ
##μ
##ς
##غ
##U
##ד
##ו
##מ
##י
##ם
##B
##M
##I
##ո
##ւ
##ր
##է
##ն
##е
##л
##р
##у
##с
##ь
##к
##і
##T
##w
##f
##ج
##ł
##ó
##ग
##ा
##न
##ﻮ
##ظ
##j
##í
##া
##র
##ি
##ফ
##é
##4
##x
##ա
##գ
##ս
##յ
##y
##в
##ы
##ù
##ي
##의
##ە
##۸
##ض
##X
##á
##K
##C
##q
##Z
##ـ
##أ
##ء
##š
##б
##и
##я
##н
##о
##ā
##ī
##ً
##ٍ
##ہ
##ά
##ι
##ο
##𐬭
##ْ
##P
##ɛ
##ρ
##ό
##η
##٢
##٧
##ڕ
##ı
##ṣ
##è
##т
##м
##δ
##٩
##٠
##ك
##द
##्
##ŋ
##ã
##ۀ
##ə
##V
##ؤ
##ु
##र
##य
##ो
##ä
##å
##ß
##მ
##ზ
##ა
##რ
##G
##ð
##қ
##Y
##ō
##թ
##ք
##→
##ö
##×
##մ
##ă
##ô
##𐎼
##ε
##თ
##ვ
##ე
##ლ
##უ
##ი
##ʻ
##ü
##з
##́
##ў
##ի
##կ
##ě
##ç
##ێ
##γ
##υ
##φ
##ﺪ
##ﯾ
##ﻤ
##ָ
##ב
##נ
##έ
##ν
##ى
##J
##А
##Д
##Х
##Ш
##О
##Н
##−
##ц
##か
##な
##լ
##ڵ
##տ
##ٰ
##ğ
##±
##ե
##ṛ
##য়
##ো
##ռ
##ч
##ོ
##σ
##ύ
##ú
##ψ
##ъ
##д
##É
##إ
##ก
##า
##ล
##น
##°
##à
##ǎ
##ज
##ी
##٤
##ш
##ą
##স
##ল
##ম
##ী
##𐎠
##ٌ
##च
##ş
##ṭ
##ē
##ᠢ
##ᠨ
##ː
##ө
##ò
##た
##く
##²
##փ
##군
##ñ
##ж
##ṇ
##ę
##θ
##й
##왕
##დ
##ί
##®
##χ
##τ
##ן
##̃
##ï
##চ
##٨
##¦
##ٱ
##ū
##ë
##п
##ტ
##₂
##ć
##ۋ
##€
##ɡ
##ń
##ナ
##ー
##ɑ
##∗
##্
##ব
##ś
##ﺎ
##ﻳ
##ž
##բ
##β
##³
##խ
##ω
##ή
##ר
##ז
##Δ
##ے
##դ
##վ
##ծ
##κ
##ﻨ
##ﺮ
##ﻫ
##շ
##â
##æ
##व
##ʿ
##리
##ý
##١
##¹
##ۊ
##ժ
##ê
##ত
##∆
##զ
##ф
##Ş
##İ
##ő
##Մ
##ᠠ
##ᠩ
##ᠲ
##ᠤ
##ղ
##ώ
##û
##ה
##ٹ
##î
##ნ
##ო
##ż
##ɔ
##ﻧ
##ﺖ
##ต
##ร
##ั
##ই
##ン
##ว
##থ
##부
##´
##ҷ
##ิ
##ท
##ุ
##ﻠ
##٣
##א
##ע
##ק
##č
##り
##ʾ
##𐬀
##𐬙
##ῖ
##ש
##ں
##ラ
##マ
##フ
##の
##ø
##म
##ź
##시
##ু
##ধ
##ে
##হ
##প
##ট
##ন
##ɪ
##ֶ
##פ
##ְ
##ִ
##˚
##М
##Р
##¬
##г
##ү
##ٚ
##শ
##ל
##Σ
##ষ
##ণ
##য
##়
##ს
##ғ
##ۂ
##ɣ
##ɐ
##ș
##ウ
##ھ
##ì
##Э
##В
##צ
##ַ
##ת
##문
##े
##ﯿ
##ब
##ۡ
##〮
##ˈ
##£
##≥
##신
##ქ
##ﻟ
##ﻪ
##შ
##∈
##ि
##ۆ
##ǔ
##아
##ḥ
##ٛ
##ニ
##ګ
##𐬎
##𐬌
##𐬨
##ら
##ं
##त
##ष
##ň
##ক
##ג
##ט
##ᠯ
##ᠵ
##ζ
##ʼ
##국
##জ
##ٓ
##ʃ
##э
##ᠭ
##ᠦ
##ᠷ
##ḫ
##≤
##う
##ち
##に
##ξ
##Š
##ছ
##٥
##ձ
##ǒ
##ǐ
##ﺭ
##ﺧ
##х
##Λ
##Α
##ᠣ
##ᠰ
##ხ
##ბ
##ძ
##ᠳ
##ᠬ
##გ
##ﯽ
##ク
##ह
##দ
##ț
##ә
##ց
##π
##ю
##𐬁
##٦
##ŭ
##ん
##릉
##ং
##গ
##ダ
##ด
##כ
##기
##ځ
##∞
##Ε
##ﻣ
##ֵ
##인
##đ
##ʰ
##대
##○
##ण
##지
##도
##ᠶ
##ᠮ
##고
##հ
##장
##ม
##Ι
##պ
##る
##ﺑ
##︎
##ջ
##क
##𐬆
##ּ
##ׁ
##ۉ
##レ
##ッ
##シ
##グ
##ֆ
##ס
##ย
##이
##ֹ
##õ
##स
##ल
##ܪ
##ܝ
##ܢ
##ܐ
##չ
##ᠪ
##ﺍ
##ﻥ
##☉
##บ
##เ
##อ
##ง
##พ
##˓
##ɾ
##ス
##タ
##ṯ
##प
##ܡ
##ܕ
##ܘ
##श
##ﯼ
##ё
##ﺸ
##С
##♠
##ᠥ
##ʊ
##ח
##♯
##և
##√
##Ф
##ﻭ
##᠋
##œ
##Ա
##사
##コ
##は
##ė
##щ
##ี
##ส
##さ
##ճ
##し
##ロ
##ᠡ
##원
##ル
##≠
##て
##Ω
##К
##Б
##∧
##উ
##ٴ
##イ
##ǰ
##⇒
##ŏ
##ﺗ
##⋅
##ʁ
##ფ
##খ
##Г
##ڭ
##い
##성
##ﺳ
##Ø
##ト
##்
##ﷲ
##ڤ
##と
##ミ
##←
##Č
##ɒ
##Ο
##Κ
##주
##𐭥
##─
##ˌ
##ʒ
##ভ
##ड
##Ú
##þ
##き
##≡
##♭
##ア
##정
##ҳ
##𐭩
##𐭠
##ﺴ
##ま
##𐬵
##한
##☃
##Á
##ド
##½
##Π
##კ
##す
##Ö
##ې
##ও
##И
##Ի
##Գ
##Խ
##Ն
##Յ
##ﺰ
##ﻦ
##■
##∪
##÷
##ښ
##Ā
##П
##ﻴ
##リ
##Պ
##Ե
##Դ
##ﺯ
##ﺘ
##̎
##∂
##ﺩ
##∨
##З
##Ν
##Ü
##Μ
##Γ
##Ո
##Ժ
##Ž
##カ
##↑
##ム
##￼
##Å
##ﻩ
##ﻓ
##ジ
##ħ
##Չ
##Ք
##Շ
##Β
##Т
##ﮐ
##Ս
##Հ
##Е
##У
##Л
##↵
##ᠴ
##भ
##Ə
##Я
##Τ
##µ
##Ł
##⊕
##Φ
##ﺷ
##Ä
##□
##Ц
##Ç
##ℓ
##◉
##Կ
##Լ
##আ
##Ś
##Θ
##Ж
##≈
##Ó
##Ч
##Â
##Բ
##Օ
##Ղ
##Տ
##Վ
##¤
##━
##І
##▪
##Փ
##अ
##Ю
##Ἀ
##Թ
##◌
##Զ
##Ē
##څ
##Ż
##অ
##Đ
##ἀ
##Ō
##Ռ
##ƒ
##এ
##ᴗ
##Î
##●
##김
##Ֆ
##ان
##ای
##ست
در
##ار
##ین
##ده
به
##ال
##ند
از
##یر
##ور
##ود
می
##های
با
است
##ام
##es
که
بر
##اد
##وی
##اب
##لی
##رد
##ات
##اه
این
##ون
##ری
را
##ty
##tyl
##tyles
##سی
من
##ها
##یل
یک
##شت
##یت
##زی
آن
##انی
##ول
##وان
##اری
gt
lt
##فت
سال
##ویس
هم
شد
##la
##رو
##است
ان
##وم
##تر
او
بود
پان
##ابع
##mp
##ss
te
شده
پانویس
##rc
##lat
temp
templat
templates
templatestyles
src
css
styles
##ید
##یم
##از
منابع
##اس
##اده
کرد
##ایی
##خت
برای
##گر
رو
##هر
تو
##مان
##ارد
##گاه
فر
##ستان
رده
##نگ
##رک
##هٔ
۱۹
##تی
##کن
فیل
میش
فیلم
##را
آم
##لا
۲۰
مو
ای
ام
مت
##ادی
##یا
##بی
خود
##وت
اس
مح
تا
یا
بازی
نی
##فر
##اق
کار
پی
مس
جم
سر
##غی
##اشت
##غییر
تغییر
##اند
مع
اه
بی
وی
دی
##ههای
شهر
قر
##می
##نی
نام
##بر
دارد
ایر
##گی
دو
میشود
##وری
کر
##الی
##اخت
باش
##ریک
مد
میک
##له
##دی
##قی
مر
گر
##مس
##اش
##نده
##نوان
##ورد
##کی
اهل
##بال
شدهاست
##ونی
مج
نو
##مسیر
ال
##انه
کش
تغییرمسیر
ار
##اره
##اقع
واقع
میل
آمریک
نم
پس
داشت
ایران
##گان
سی
کن
##مین
ده
##شن
##اک
##عیت
دست
توس
عنوان
##وز
۱۳
##الات
##اع
میلادی
قرار
##خش
##زار
##بت
دان
##شک
فوت
##وس
##وند
##توان
نیز
##اف
##نین
نق
همچ
فوتبال
##عه
مق
کرده
دار
دور
##وب
عم
بو
نظ
##گیر
کم
##اپ
میکند
آل
میتوان
##اح
توسط
##امی
اع
جمعیت
آنها
فیلمهای
##امه
۲۰۱
##جه
##فته
استف
##تش
##رف
تح
استفاده
انگ
داد
##اً
##بان
متح
تر
هر
##طق
مش
ساخت
جن
مرد
آمریکا
نفر
بین
اص
بخش
##ایش
اش
##یه
##عد
##زر
پر
باشگاه
پای
همچنین
##وه
یکی
##شم
##در
تاری
##مو
جه
زیر
##بار
روست
##ستند
متحده
##که
ایالات
کشور
نش
اول
##گذ
تاریخ
##هایی
##شی
##رب
##جود
##۰۰
اد
اما
##مد
##رکت
##انس
دیگر
بوده
باز
##امل
##ورت
##اص
خو
شم
انت
اج
##من
پیش
##عی
##ازی
زن
##اخ
منطق
اف
ات
دانش
##ترین
##مانی
تن
##کت
##یک
مه
شک
##انو
##گرد
روی
##لو
انگلی
تأ
مرک
##اط
##به
ملی
زاده
##وئ
زند
##یس
بزر
مورد
##اسی
بسی
##خص
مان
##تاب
انگلیسی
شرکت
##مت
بن
شهرستان
جنگ
##کر
انج
کل
##فی
استان
##or
عل
۲۰۰
##ینی
روز
هستند
##ایت
کند
##کنند
گرو
##لس
سپ
میب
##شته
شر
##عات
تیم
وجود
بد
زی
هن
اط
##وش
بار
میر
بازیگر
اشاره
گرفت
جای
اق
##نج
##نامه
تص
##دا
حال
فع
##زه
##ابق
۱۸
##ابر
##er
تل
شن
بزرگ
##ندی
نس
##هنگ
##مل
##اهی
##کس
##وا
##on
دریا
چه
باشد
##خی
زبان
##دار
کتاب
اح
کو
میده
##ثر
ساز
تم
زمان
بیشت
##ادر
##بد
##تم
مجمو
آب
چند
سه
##کو
ور
شود
رس
##دید
##چه
داده
زمین
بال
فعال
##in
صورت
زادهٔ
ری
ترک
##ومی
##سته
##اید
##ره
##کان
دانشگاه
##لیل
##بو
گروه
##لید
سط
نقش
##حی
##گیری
بل
حد
سن
میباش
بعد
##ارت
##پر
دوم
دول
۱۹۹
##ونه
انجام
##قل
نخ
هی
نیر
طول
##ائ
##ابل
اند
مانند
##لام
نظر
##ودی
مط
##طور
آر
##برد
بودند
##اتی
میکنند
بیشتر
##او
مص
##جی
تق
سو
آز
##سید
اطلا
##ستر
فرانس
بازیکن
تج
هو
##مه
##ندگان
نشان
روستا
شه
میکرد
##دهای
لی
شور
##انیا
میباشد
سطح
کیل
##گو
##امبر
کردند
تولید
زندگی
حم
##ارک
##تب
راه
##انک
اولین
##ربی
قب
##شتی
##دان
پرو
گذ
گرد
اصلی
اطلاعات
##این
##رم
تع
کردهاست
متر
##ar
چهار
شامل
آغ
میدهد
داشته
میان
۲۰۲
##کار
غیر
##ختل
خانو
فعالیت
بازیگران
##الت
دارای
##ایل
##گری
شی
خط
معم
آمریکایی
میشوند
##صی
##ستم
سل
##ویزی
شاه
##en
نخست
##خاب
بودهاست
تلویزی
انتخاب
گل
منتش
ایت
منتشر
##جر
آغاز
منطقه
برخی
##بری
جام
اثر
دوره
##فه
مرکز
افر
##ژه
##ایر
موسی
یافت
##سان
کیلوم
شب
##ینگ
دلیل
بیر
برگ
##زش
بهطور
##سه
##شده
##فا
حس
ماه
##ریق
تنها
علی
خواه
##اور
##الیا
##رائ
##an
ایج
##سر
##خو
شدند
جان
مسابق
۱۹۸
کلی
مست
##اخته
ایجاد
دارند
##بع
بسیار
##ضو
مخ
همر
##ضی
##وق
##رین
بریت
آث
##شان
جو
##یمی
دن
##قیق
مختل
دولت
قط
##ازه
میشد
##ویی
##ستی
دهه
جمه
##شد
وا
بیم
##کونی
فیلمها
مث
##پی
سازمان
نز
##سازی
مل
##داشت
مم
اگر
مار
گرفته
جز
مردم
رفت
کان
کارگرد
##دم
سب
آثار
مسکونی
##عت
فار
جهان
ساخته
##نه
مدیر
افراد
جمهوری
##صد
همان
شخص
اسپ
##دام
##سیس
جمله
۱۲
##وار
حک
دل
##نتی
##صل
همراه
رئ
افز
۱۹۷
منطقهٔ
##روپ
##ینه
رسید
##شه
جدید
خوان
گفت
نه
برابر
تلویزیونی
قل
##وبی
ممکن
##orm
مک
بسیاری
جهانی
##ژی
پیر
نمای
خار
##لق
تشک
کیلومتر
##شماری
کنند
##نام
اک
##هاست
مجموع
آلمان
##وهای
##ولی
شکل
##مای
##شناسی
های
##جا
فرهنگ
۱۰
##وک
مرکزی
form
سری
شناخته
##طه
تشکیل
ژاپ
تحت
##المل
بیرون
داست
پنج
##اعی
حدود
##ابی
دوران
حق
بع
دهستان
فرمان
شدن
##اگ
ثبت
##فق
۱۵
##یره
درگذ
موسیقی
##ستانی
##at
سرشماری
توجه
هنگ
##ضای
میلی
##گذاری
پیوند
توان
##هران
۱۴
نویس
بانک
۱۷
حض
فی
سده
پاد
##داد
کوچ
اینتر
##di
بینالمل
محمد
##لاح
##ذیر
فرانسه
کردن
##نت
بالات
رئیس
اساس
ته
بیش
##انت
##اج
۱۳۸
باید
۱۹۶
قدر
نخستین
##نا
هند
سیستم
خان
روسی
پایان
قان
##یده
##بود
میتواند
تعد
تهران
##لب
۱۳۹
##ما
##ونت
##داری
وق
##شهای
آموز
##ایج
سیا
تک
##بور
نمایش
##ومت
اسل
##بن
##یتی
علا
نزدی
##تص
بهع
حضور
معمول
مختلف
خانواده
##خانه
اروپ
زنان
اخ
##ریان
##ri
##کتر
کی
پرد
##دن
بینالمللی
ژوئ
##نو
سنگ
برنامه
عمل
داستان
طب
سپس
##تق
دید
##al
ترکی
قهر
اینکه
##ضا
۱۹۴
##احت
##ندان
##ula
بریتانیا
ایتالیا
سوم
اخت
تأسیس
بهعنوان
فرو
فل
##اران
##am
رود
##اشی
کس
گستر
سین
آسی
نسبت
جنوبی
همین
##راحی
ست
میز
##ندهٔ
##کل
مدر
هد
##ران
خص
کشتی
##ویه
ابت
مساحت
مجموعه
##وید
هنر
##عث
##رسی
یون
دریافت
نمود
##گز
باعث
نمی
پدر
##اض
پار
انتق
افزایش
گو
##شاه
formula
خی
مرگ
سیاسی
اقتص
مسابقات
##ورش
قابل
کمک
اعلام
خصو
ولی
##رخ
کام
بالاتر
سالهای
مربو
مهم
##ثیر
##قه
سف
۱۶
۱۱
داخ
##رح
##صیل
فرد
##بدیل
زمانی
##رات
تبدیل
ایرانی
یاد
##دها
همه
##وست
میگیر
##ویت
۲۱
ره
گفته
صن
درگذشت
پل
##بانی
##کرد
##ریب
مین
جنوب
##فاع
وز
##سم
مربوط
ژان
طریق
وارد
کود
##ابت
روستایی
اسلامی
شمال
##لند
##re
##باد
تمام
روسیه
نگ
هزار
هیچ
جایزه
افت
نوع
##یند
قد
محص
حز
مسیر
۱۹۵
کاه
دربار
##یدا
ما
عمومی
##تری
موفق
گی
##کنون
##راف
آور
ادامه
دری
زیادی
قبل
فصل
##باره
شع
##الد
نیروهای
قرن
کوه
ارتش
نتی
فرود
بدون
##پرات
اجتم
دخ
خد
طراحی
رق
کارگردانی
##یدی
نظامی
طی
اینترنتی
سمت
ول
نیست
##اساس
##یز
محصول
گزار
##کاری
##وف
##مر
توسعه
معمولاً
میدان
آلب
##ti
موارد
##تو
شرو
سیاست
له
امپرات
کشف
##اتین
قانون
##لاف
نور
##ایان
صف
کاهش
##ولد
شهری
مغ
##کننده
##جمه
ارائ
صد
تأثیر
حزب
آذ
غربی
۱۹۳
نسخ
طبی
شدهاند
سلط
محل
هفت
ناح
رنگ
مرا
گونه
اجتماعی
روش
تعداد
##سیم
خاص
ژاپن
مجلس
انگل
آخ
شیر
##لیه
شروع
##el
ها
##مز
گون
دیگری
مربع
فق
##صر
میآ
آمار
ارائه
برگزار
اتح
نوشت
مدال
##اتر
##روف
##سد
##دهاست
##سال
محد
سوی
شکست
نیاز
مؤ
مشت
بنی
مذ
تور
##خان
مطال
تاریخی
کوت
مسئ
آلبوم
منا
##شکل
##میت
##سن
##کا
حالی
انگلستان
##چی
نیروی
لاتین
مواد
خواهد
نتیجه
بهترین
آهنگ
##وریه
##جم
ایالت
صح
##ریف
شو
##رفی
نیم
باشگاههایی
##نان
##is
جریان
انسان
##بل
شرقی
حمله
##تور
ارتب
ارتباط
##سون
توابع
فرز
پلی
اسک
کری
##et
##تل
##لاً
قدرت
پسر
اروپا
مدت
برخ
قس
میلیون
درآ
##مپ
##تن
کنتر
ارمن
##ولو
##واج
مشخص
آنجا
بالا
##دهم
امرو
موجود
عملی
##هن
تلا
۲۰۱۰
آورد
دختر
سایر
##افظ
تحصیل
ویر
خصوصی
تخ
دربارهٔ
اب
کال
حرف
براساس
علمی
##طی
نف
پیدا
##ارهای
یه
یع
انتش
حکومت
عضو
تهیه
##میم
خر
انتشار
پاس
طرف
خانه
کوچک
ویژ
اجر
##ing
ارد
لو
##ساز
درام
آزاد
##یری
راب
##سل
آمد
چندین
##زد
مناطق
##بندی
گزارش
##برداری
شمالی
کنار
##زا
عبار
تف
برج
موضو
هدف
سابق
ارت
##ورک
##ont
##اعت
تش
احتم
مالی
چین
مای
کنترل
مکان
۱۹۲
قسمت
۲۵
##ol
بیماری
##it
انقل
برنام
میگیرد
لیگ
##قر
استر
##آباد
حقوق
موق
##تون
یو
##سا
آزم
آف
##زمین
##ندگی
##اسب
سیارک
ارمنستان
##om
دهد
ازد
##دهی
##فاوت
ناحیه
##گین
##افی
##ابه
##op
بخشی
سام
چون
##سو
##دری
حتی
id
##انگ
##حه
نزدیک
##واره
آموزش
شورای
اکت
##ریه
زیرا
ویژه
برادر
اغ
##نش
فرودگاه
سوئ
تئ
زنده
زاد
داشتند
فرانسوی
۱۹۱
مدل
یعنی
re
بررسی
##اطر
##جو
مال
شمار
ترکیب
مسل
##غان
کمی
ازدواج
اعضای
پرداخت
برد
دنبال
تاب
دنیا
درصد
تی
##بیر
مادر
جهت
تحقیق
روستای
px
##ادا
جوان
##پرد
کسب
##le
عبارت
بازگ
##انیایی
##نز
جشن
مقام
سپت
##ارستان
حمایت
پایه
##مایی
##زیک
شوروی
همچون
ورز
نوشته
۳۰
شوند
چشم
منت
##شار
##تا
مها
سپتامبر
##قیم
کامل
ادبی
میکردند
۱۳۸۵
شخصیت
فارسی
##با
سبک
تصو
فلس
مشه
بح
##وده
مارس
گردید
##باس
دقیق
رسی
##رض
ابتدا
ند
شبکه
سا
بنابر
مور
کره
اسرائ
##الب
اکتبر
##فظ
معرفی
رسمی
چنین
##سیون
اجرا
##تیب
عه
میگ
اور
##دد
خارج
منظ
##باز
اغلب
فهر
##ندر
پژ
اوت
مرح
##اپیم
##هایت
طبیعی
##نس
میدهند
خورش
زمینه
آذرب
هشت
باشند
امن
علوم
روم
آی
طرح
آذربایج
دستگاه
ماده
رمان
##نر
##گران
##ایه
خاک
سیاه
ویژگی
شرای
##ویان
##ent
اولیه
عرا
20
مقابل
احتمال
بازار
محی
##رید
جامعه
پن
هنری
پذیر
##اسم
##زارت
غرب
سفر
اندازه
##ههایی
سید
غذ
حالت
امکان
وزارت
تصمیم
par
##un
مرتب
هنگام
انقلاب
همکاری
تقسیم
انتقال
دس
##شر
مسی
علاوه
مثال
فرهنگی
حرکت
اقتصادی
فقط
معن
پادشاه
کردهاند
##اله
ساعت
##رژی
۲۲
اسپانیا
علیه
کشورهای
##پل
##اصر
کمدی
##od
##اسان
فروش
حمل
مشکل
جد
حوز
نگه
##سک
بازیهای
سرعت
##زشکی
بیان
دستور
طبق
##he
##یار
##ion
##زاده
موج
قهرمانی
معروف
پوش
رشته
##تیک
ظاه
##گردد
۲۴
##الله
اشت
ساختمان
واح
تلاش
حاض
ارتفاع
داخلی
میرود
##امت
عبد
آوریل
عربی
جل
ژوئن
محلی
بازگشت
۲۳
گذاشت
##اوی
##ونگ
اقدام
هواپیم
##اهد
پژوه
انرژی
##ئت
##وله
شاخ
آزمایش
شیمی
##ئی
انجمن
همسر
حی
دام
محدود
کشته
پخش
چاپ
امپراتوری
نوامبر
عن
پیشن
رای
برنامههای
حاضر
##ic
##ik
دسامبر
ابر
زادگان
بودن
##وزی
کارگردان
##ut
منجر
##هم
ندارد
سرد
وض
درجه
وسی
##ابد
کات
سخ
اض
بنابراین
اسلام
کوتاه
موضوع
شرق
هز
##الیایی
شش
مخال
بنا
##گذار
خبر
اهالی
آتش
رشد
##ابان
سک
ژانویه
##سانی
پایین
جی
فرای
تب
نهایت
##وریت
جلو
مدیریت
توصی
اسرائیل
مدرسه
تصویر
هوایی
بلو
##خانو
##اصل
##غول
قهرمان
شرایط
افغان
استاد
##واع
یهودی
سنت
عملیات
فهرست
آخرین
تیر
جنب
عراق
هست
##مب
آلمانی
##کنندگان
پیشر
bdi
نیوی
رخ
کور
نداشت
دادن
##ادل
##وسی
خودرو
آفریق
ترتیب
جنسی
دولتی
نبرد
عق
مشغول
##گن
انتخابات
وزیر
نسخه
کانادا
تقریب
##لیت
جدا
##علی
خاطر
##دهٔ
آذربایجان
خدمت
##لاق
ورزش
##سین
##پذیر
۲۰۰۰
##وین
##وع
##ویش
نیویورک
سخت
سرزمین
موتور
کشاور
لهستان
ژوئیه
##اها
##خار
فرزند
مهاجر
پزشکی
##وران
شعر
روزنامه
داشتهاست
رسیده
سالگی
ایست
دیده
گیر
##گانی
##یتر
ریاست
##اصله
##هاد
##خواست
۱۰۰
جمع
19
هنرم
##ژن
##وط
##اسر
خدم
##خته
توصیف
گسترش
اوایل
۱۳۵
محیط
##شاهی
کاربر
##مپیک
##اخر
سق
##نویس
##الدین
هج
##غال
بزرگترین
نا
##خانوار
مید
##گونه
مذه
محم
نویسنده
دین
پاک
ایل
آنان
نرم
##سای
باستان
کشت
دریایی
##اکی
مف
انواع
مرتبط
دوباره
##رافی
##مال
تعریف
عهده
میتوانند
ترکیه
منص
استخ
درآمد
##وپ
الگو
##اهم
##ta
##بات
میرسد
عو
تقریباً
گیاه
بلند
خصوصیات
تعی
وس
فوریه
مرحله
روح
میزان
تعیین
مصرف
مهند
اجرای
چی
خارجی
ایتالیایی
۲۶
تس
سیم
آس
واکن
دادند
مشترک
قلعه
دلار
اصط
عرب
علت
المپیک
کالی
##گاههای
تئاتر
##بین
جغ
سریال
کا
هوا
دومین
##لیم
متن
ماند
برندهٔ
روان
##گار
۲۸
نفت
بدن
##مند
کرمان
درمان
ضد
خون
##انا
زیست
##us
##آوری
##پرداز
موقعیت
۲۰۲۰
مول
##ایع
شناس
شخصی
بهره
نامگذاری
اگرچه
وقتی
برخورد
ساختار
افغانستان
حفظ
##فاق
##منی
آمده
##جام
مشابه
توم
کمتر
گذشته
##بیه
اقتصاد
امور
##ربه
##ستگی
##as
حسین
ژاپنی
##nd
##نیا
##لین
۲۷
رهبر
آزادی
##ro
##یدان
هنگامی
رادی
ترانه
مسابقه
خواست
عرض
##اهای
##ایز
ایم
احمد
رقابت
درخت
##مایه
مقد
ویکی
مهر
الی
وضعیت
یافته
اواخر
متع
مؤس
##تقد
ماد
##ویل
##گاهی
مبار
##داران
بور
داخل
دسته
پادشاهی
##ناوری
کاربرد
قم
فیلمبرداری
##جد
هیئت
##سوب
باقی
اتفاق
پشت
رابطه
خدمات
هنوز
متولد
اعتر
سفید
عالی
اسم
##په
پاسخ
برنده
الکتر
رهبری
##ac
##im
نمونه
##ازم
خانوار
##qu
##افق
نج
فرم
جایی
##راج
نقل
محافظ
نبود
##تبه
##سکی
جزیره
##MD
##ریم
مستقل
##انیان
شیمیایی
فض
فناوری
##نظ
##راک
خیابان
اداره
کد
اله
الکت
مشاه
##لهٔ
چهارم
هندی
##رز
حو
مستقیم
باند
##ابط
ماهی
تجاری
##ونا
پیشنهاد
۰۰۰
استاند
مأ
کشاورزی
حذ
دکتر
##ظیم
سان
پدرش
سپاه
اصلاح
پول
##اتیک
اتحاد
مشهور
پروت
حاک
##کش
آش
حل
باغ
قتل
##ارکت
میگوید
جایگز
پارک
پیوست
درباره
ساکن
نویسندگان
##نگی
مکانی
۱۹۰
لند
۲۰۱۶
معنای
IMD
اتحادی
آک
##ینو
فشار
پو
شمارهٔ
بعدی
##مع
IMDb
دف
##ولوژی
مثل
فعالیتهای
##ئو
##ظه
ادبیات
۲۰۱۱
جا
معماری
مقا
۱۹۹۰
##انده
##ur
##il
##جان
اجازه
۲۰۱۹
معنی
۲۰۱۲
مراسم
سرمایه
لح
top
عملکرد
ادع
نت
وب
۲۰۱۴
قرارد
برتر
روابط
مرز
متفاوت
##یسی
نزدیکی
مجموعههای
گاز
##گرفت
##دیگر
##آور
مأم
##ادهای
مشارکت
##شکار
۲۰۱۸
بسته
واب
مصر
اختص
۲۰۱۷
##گانه
ویکیپ
استرالیا
##دت
فیلمی
##اون
آق
دفاع
رئیسجمه
۲۹
##گون
درون
ماش
مهمترین
##ریش
آبی
##زمان
واحد
اصفه
کالیفر
امر
میآید
##ینا
بیست
##رکز
بلکه
میلاد
##ئین
مقدار
۱۳۷
##یدن
قطع
نامیده
مبت
آرام
ساله
وال
گری
۱۳۹۵
راست
جع
لشک
رد
نیمه
پیچ
##افه
واقعشده
پیروزی
سراسر
مز
طلا
##شق
##عتی
##ائل
میداد
فرایند
اطراف
Mi
فن
دانشک
سلول
##هها
تاریخچه
ویل
اصطلاح
##ed
##ire
بیشتری
تابع
اساسی
10
##شناس
فراهم
۵۰
۲۰۱۵
##گا
##فتر
محسوب
طبقه
بس
سع
منظور
تاکنون
په
##شین
سران
گسترده
گرم
نظام
چرا
دبیر
##یتبار
سور
۲۰۱۳
##ماند
تکن
سنتی
حسن
خل
پاپ
فرست
کرو
کشوری
کالیفرنیا
جذ
وح
حوزه
لندن
رز
گیل
موس
بعدها
استقل
۲۰۰۸
خواننده
##قان
نظریه
آسیب
تاج
تأی
##لهای
پشتی
فاصله
استقلال
سرخ
زندگین
چار
گاهی
##زاری
گذر
اکنون
رشت
تای
فرا
##xt
##میر
کلا
شهرهای
کودکان
توانست
مردان
واکنش
رساند
موفقیت
##رس
منتقل
تأیید
نوعی
تحقیقات
بگیر
پروژه
جشنواره
نهایی
رک
گروهی
کاری
##رت
صنعت
شهرد
##ip
واقعی
عض
۲۰۰۹
آین
یکدیگر
##فای
رودخانه
نمیت
##ارا
شاع
##زن
نقاشی
فضای
پرت
##os
زندان
وقت
ریا
رئیسجمهور
زیاد
مسلمان
نامهای
wik
۱۳۶
آنج
ورود
عدم
تدری
##زدهم
مناسب
الگ
##لر
بنیان
خطر
خرو
نماینده
##ریت
ترجمه
##شمار
۱۸۹
دوست
ماری
##لز
سیاستمد
خلی
##احب
تیمهای
مشاهده
##eter
دمو
خدا
برجسته
ارمنی
قوان
مسجد
حرفهای
تشخی
بازیکنان
سرباز
##ern
امروزه
ساده
دفتر
امیر
ظاهر
پاری
##طان
امنیت
امام
##وو
تأمین
##آن
تلویزیون
##ونده
##افزار
فیلمنامه
باب
دنی
##برگ
مدار
خلا
اتحادیه
کسی
##لیک
گرفتن
بومی
عمر
مذهبی
ماشین
##واز
آسیا
ورزشی
۴۰
Miss
۲۰۰۶
##انههای
پلیس
##خواه
نمیتوان
##هی
اصفهان
۲۰۲۱
میگردد
##بورگ
متعد
روشن
۲۰۰۷
سینما
ابو
شرح
اختیار
جغرافی
احس
هل
درخواست
خودش
باور
##وال
##افت
com
هفته
##ct
##ment
param
ناب
موجب
قدیمی
بالای
مجدد
جلوگیری
خورشیدی
همزمان
دانشکده
##ired
فت
parameter
نص
مدرن
متحد
requ
##onth
اهمیت
شبیه
##ig
Missing
month
قیم
required
##صه
کمیت
شدید
ارزش
شدت
مخالف
##چار
ذخ
عامل
عث
فرماندهی
۳۱
پژوهش
##حل
همچنان
##مرب
نقطه
جایگزین
تشخیص
فرمانده
محک
مطالعه
پا
##تهای
رتبه
##ویب
محصولات
##ادگی
پوشش
##id
قدیم
پرواز
قوانین
##راح
گروههای
##بته
جنبش
معتقد
ویلی
حاصل
##ame
دورهٔ
محب
##ژیک
امتی
کاملاً
عص
##وانی
##مربع
اصل
##دل
##ارات
فول
##اندان
دانشآ
تال
جر
البته
##اما
وظ
مطرح
مفه
##اجه
بیت
مقاومت
ساح
دع
تصویب
اضافه
ابزار
اشک
تری
فارس
##لم
ویژگیهای
cont
رض
ثابت
##rib
مهاجرت
ناشی
وید
تحلیل
خلق
ماس
خش
ارشد
دا
کیلومتری
۲۰۲۲
جست
متو
صفحه
پال
شماره
##gin
خورد
توپ
قز
##عم
of
رفتار
خوانندگان
۱۳۴
میخ
پیاده
بریتانیایی
خاندان
زبانهای
##اکس
عبدال
##کول
هار
سرانجام
##شود
اختصاص
برز
خرد
دانشج
نب
اتاق
سرده
قلم
بعضی
##انش
##ra
لای
##ch
منبع
سود
دادگاه
صنعتی
گور
شناسایی
طور
خور
علم
ذکر
مدتی
سوریه
پاریس
##زان
##ribut
ناپ
مطالعات
کلیسای
##کشی
اعتراض
موزه
واژه
روشهای
قاب
میی
سبز
بحث
پیام
وار
مختلفی
##زبان
##ریزی
ویت
رم
##ributor
contributor
پست
اعمال
میرزا
محبوب
۱۹۸۰
رایج
برده
تحصیلات
بهد
دهند
وابسته
##اقل
مسکن
##وج
صرف
طل
##سپ
##10
##نهای
توانایی
اخیر
##لح
بتوان
صادر
تغییرات
##ونیک
##بک
##ورا
کیلومترمربع
احساس
##گرایی
اسپانیایی
مهندسی
علاقه
##um
کیف
سیل
تلف
وین
##اهیم
زم
##ائی
حر
مدیران
توزی
زندگینامه
درگیری
تنظیم
سریع
مقای
نشده
تمامی
##ویسی
##رده
۱۴۰
##رخه
فارغ
گردش
تد
دسترسی
مسیحی
جایگاه
لباس
هجری
یونانی
##اتور
جرم
حذف
تفاوت
##وذ
حافظ
بهشمار
میشدند
۲۰۰۵
انسانی
متوس
نیرو
ستاره
بعداً
##الهای
استودی
توزیع
##ot
آینده
##فاظ
بیمارستان
امپراتور
رأ
زد
شهرک
بهبود
فرار
ملل
بزرگی
##دتاً
17
وزن
##وگر
کلاس
گشت
ابتد
لازم
##بینی
۱۸۸
پشتیبانی
##انهای
مشکلات
مب
##جز
جیم
عمدتاً
##بیت
چیزی
##گل
احتمالاً
مطلق
نقره
همی
لغ
##هره
دشم
خراسان
اختلاف
مون
##ادث
شبک
تعدادی
##انوس
گن
مسئول
##۵۰
نسل
عبور
عصر
محله
جاده
زیب
نار
عبارتند
##قب
##غذ
##شمند
درگذشتگان
##ایق
دم
ویلیام
سانت
سلطنتی
##۰۰۰
##تخت
##سیک
##ولا
توضی
رفته
برق
افتخار
منصوب
آلی
طولانی
سبب
مجله
ماز
آنکه
مؤسسه
##ow
آنچه
امتیاز
۶۰
کوم
واژ
کننده
کاپ
دیوار
پیم
جغرافیایی
روایت
موسیق
##لات
تپه
بازر
##هاش
شبه
us
دستی
مقایسه
شهرداری
مقدس
نمون
خصوص
پایتخت
کمپ
نشد
گرفتند
##ation
چینی
##ارش
حداقل
حفاظ
قانونی
پیشرفت
ضر
نات
درو
##edi
عثمانی
حلق
حساب
نفوذ
ولایت
هید
##زده
کریست
داری
اظه
ظرف
کودک
گوناگ
محافظت
##هام
تجربه
میگذ
مربی
فین
لشکر
جور
ران
لهستانی
ورودی
هلند
استاندارد
نگهداری
جامع
بنیاد
##سب
اروپایی
شیخ
کارهای
شهرت
قاج
آشن
##میز
tim
##اچ
##پور
##روم
مسئله
۲۰۰۴
ساس
بافت
##طر
متعلق
ترا
##درا
سیاستمدار
خورشید
قالب
باد
توضیح
میگیرند
پیشین
##خصو
مالک
##انگی
۱۸۶
برنز
۱۳۳
اث
ریشه
##ورو
برزیل
##شهر
خوبی
mod
سلطان
مجبور
عشق
نمایندگان
201
اوکر
##ژاد
گوش
اهد
آموزشی
هزینه
##سیل
جدول
##تس
تجارت
##وتی
هدایت
##ad
۲۰۲۳
متری
##زاد
خوش
##کران
پهل
درست
۱۹۷۰
اسب
##امهٔ
بازسازی
##امین
صنایع
فری
##کند
ایده
ذخیره
بست
##ادمی
تخت
نامزد
مبارزه
بدین
فوق
داشتن
اپ
قیمت
##بط
دچار
اسکات
مفهوم
پت
قمری
ori
##گویند
نر
##ستون
تبلی
##مهای
سوسی
بخشهای
##برو
سرو
صدا
اچ
##esta
##قرار
##ایف
رسیدن
دموکر
model
اکثر
عرضه
##کتور
origin
##لیپ
##شیر
##زشک
نواز
شان
درگذشته
ابن
چک
مییابد
خواهر
ایستگاه
رون
سایت
هنرپی
جذب
##دین
حکم
format
بان
##سکو
چپ
یکم
دانشآمو
لوئ
سم
بزرگتر
عاش
ریاضی
##ername
##مینی
سیر
فرمول
صلح
timesta
timestamp
username
حاکم
سرک
##اث
##ته
نرمافزار
انتظ
جوایز
منح
##tion
فیزی
آکادمی
سوئد
معادل
سومین
##التح
##کید
##انیه
##افع
سد
یهودیان
مری
ایفای
قض
تبری
مدرک
##فل
خشک
مارک
نقاط
پایگاه
##غیر
پنجم
##صورت
فارغالتح
سلام
فلسط
دود
comment
##دراسیون
پاکستان
نظری
##اتا
زمینی
سقوط
##میل
##edia
قصد
##ریکی
##enti
##یترین
محکوم
##خصوص
اسف
اقی
کاخ
متصل
##اندازی
میباشند
##یش
##زل
##پایان
سای
۳۲
رقص
تیره
دریای
تبلیغ
خاصی
میگویند
رومی
سلطنت
۲۰۲۴
۱۸۷
شما
فردی
##پا
میبرد
##86
عرو
۳۵
بهداشت
سند
فتح
تخص
تازه
همیشه
نزد
۱۳۲
##em
قرارداد
اختل
##الع
##ائو
پرداز
دقیقه
گاه
مات
میپرداز
فلسفه
موسیقیدان
برداشت
##عود
اقتب
عدد
##لاند
کنید
##ولیت
لس
مهمی
##مون
##ازده
ورزشگاه
آماده
۲۰۰۳
##نجی
اتریش
##غل
اعدام
##اختی
##sh
##ولین
آخر
##ابری
مواجه
##ئون
##ناد
عوامل
##وارد
نادر
هنرمند
آمریکای
استی
هنرمندان
ns
مسائل
##ویچ
##اظ
جزئی
بیل
کمیته
مستند
کافی
آباد
صحنه
پرا
##82
قوی
نح
صاحب
سیتی
سازی
جلس
باستانی
جدیدی
##وتو
##فس
جنگی
هنرپیشه
##اسیون
##امپ
##اندر
بهتر
تز
##کز
مسیح
ادعا
پناه
مادرش
##زای
قابلیت
##ژانت
##وسف
کشیده
کارآ
##فع
میلیارد
مقر
تابستانی
تولد
##قت
اجرایی
##زیه
۲۰۰۲
کسانی
فنی
معاون
پور
##ia
دارو
راک
##زنی
شاعر
میراث
سیستمهای
درک
##مینا
قادر
بشر
##شید
فیلمنامهنویس
خام
میانه
قطعه
ht
معت
کارشناسی
نهاد
بهمن
آرژانت
قبیل
##ادار
سرطان
انتقاد
عموم
شهرو
۱۹۶۰
برندگان
صحبت
رکورد
عد
ارو
قبلی
گرفتهاست
ضبط
##عار
اصول
اکشن
نفوس
نماد
دوچ
##ورتی
جیمز
##نگار
کمونی
۸۰
مانده
##entid
##سیر
parentid
آپ
شرکتهای
کلاسیک
دوستان
##اندن
مقامات
قرمز
کالج
خرید
آورده
خوب
لا
##ینز
جوانان
۲۰۰۱
خیلی
قاجار
صدای
##00
پزشک
##فورد
نتایج
##اویر
۱۹۹۹
عربستان
Ch
گمینا
کف
محق
##باه
پهلوی
منتق
##اژ
توجهی
سلس
اتص
شار
نجات
دانشآموخت
##اء
مشاور
هنرهای
گذاشته
الم
اظهار
الگوریت
##ثی
قلمرو
آهنگساز
##ge
وسیله
نرو
ضرب
آند
چال
##کتری
فیلیپ
مونت
مارت
عباس
اسکار
چر
##بیل
دمای
۷۰
پوست
in
##ویز
لحاظ
##الح
ناش
##ظم
دانشن
بازداشت
مقاله
برخوردار
افسر
امروز
بیشترین
اهداف
مقدم
متم
یونان
ایز
کتابهای
نظارت
غذایی
منتقدان
فرض
##انهها
دیدار
۳۶
دیر
##کام
حرفه
مبن
خوز
قی
##ویا
بندر
دیوان
دیدگاه
ترکیبی
بند
خلیج
##شنبه
فران
سینمایی
۱۹۹۸
سوخت
افرادی
مستقر
کتابخانه
##ist
##ادو
میکن
دریاچه
آفریقا
متوسط
پری
##آهنگ
##باری
##اگر
نوری
اندی
لین
##جوان
تض
الکتریکی
۳۳
مجاز
##نوعی
فیزیک
نخستوز
سخن
بیپایان
تجه
تمرکز
سکونت
بخ
##دیا
آنت
رأی
حیوان
توافق
##زهٔ
دیوید
چیز
##مات
بمب
افتاد
فارغالتحصیل
##جیب
تجهیز
##التی
##دیده
امت
آد
تأکید
تدریس
##برت
کیفیت
عکس
##ul
خویش
تهدید
##احی
هما
دون
کاب
نها
لر
روند
##صت
مشرو
فضایی
##قیه
ارز
##st
اوکراین
آهن
کنونی
هیدرو
امضا
تقویت
حفاظت
۹۰
جبه
##تمند
سوسیالی
یخ
صلی
فدر
نمایشن
پیک
##دیای
محمود
جمعآوری
دائ
زده
تصرف
ایرلند
چرخ
ارزی
همسرش
نمیشود
##دارند
بق
دعوت
##جهٔ
شاهزاده
دوچرخه
نرخ
آت
مخالفت
فلور
دنیای
سعی
خال
##ce
##اسط
گیاهان
شکار
##8210
1786
##ستری
آرژانتین
دستگیر
طبیعت
17868210
ممن
متق
پیو
گز
شورش
موافق
##لاک
تبریز
برگزی
The
##وای
گونهای
رابر
تابستان
مسلح
اعتق
##خیر
حاوی
##شتر
##آورد
##زام
واش
حملات
اقتباس
قطعات
روس
هرگز
ناگ
پروتئین
ویرایش
##نشین
ویکیپدیای
##افر
برنامهریزی
##ریس
text
حج
منفی
ون
مکانهای
گال
بهصورت
اندازهگیری
دیگران
##ir
قطر
نگر
پیشبینی
11
بلوچ
تاک
نامه
عناصر
پرورش
متغیر
##زم
ماج
ششم
گونههای
الکس
رادیو
##یکا
ژانر
تام
##غن
بگیرد
منش
دای
ریچ
##واند
نای
خشونت
##یاش
##پو
محور
##چند
پدید
نگاه
همهٔ
فلز
گنج
سلاح
کلمب
زرد
اقیانوس
##کور
خس
دانست
لایه
##ندهای
سالها
نصب
پیچیده
##جیت
##ویم
مایکل
۴۵
دره
جانشین
کرمانشاه
##اضی
##انهٔ
بای
خطی
نان
##وتا
خری
شا
کنگر
##کم
عمده
۱۹۹۲
##گردان
دههٔ
رمز
متعددی
پرونده
امروزی
زنج
دانشآموختگان
کامپی
علیر
همانند
معاصر
بیمار
##وردی
نیا
موشک
تماس
متوجه
آشکار
روحانی
گیت
والی
کاست
مغز
وظی
تکر
##ویژه
مجموعهای
عاشق
گذشت
##آمیز
قربانی
فرزندان
##یهٔ
جعبه
رویداد
آفریقای
فرانک
هوای
اشغال
مبتنی
رابط
ظرفیت
آری
مدنی
امنیتی
غل
فدراسیون
##الم
برخلاف
۱۹۹۶
عضویت
اقدامات
##قیب
اردو
غذا
دشت
بیستم
جورج
تخریب
خوانده
مرت
صند
افتت
##سلط
پرچ
دسترس
تون
نکرد
مثبت
امید
آیا
##ساند
فیزیکی
اختر
معد
تجزیه
##عیف
##یلد
جنگل
کوچکتر
##گرا
سنگین
ابراهیم
دیپل
لبن
عر
بودهاند
بازنش
ژن
کلیسا
بدست
هرچند
اتم
آه
دینی
##بس
میداند
فنلاند
خلاصه
ثرو
افس
سرویس
اِ
ناخ
##الو
مسافر
باری
ایشان
روید
مسلمانان
مجارستان
هماکنون
اوست
بلغ
میزبان
##روی
میپردازد
دما
نظیر
##پار
هواپیما
جزایر
فیلمبرداریشده
کارل
رابرت
##امون
ویکیپدیا
##بلی
##ec
##جع
##وتر
کوب
بهدست
ورزشکار
##لمان
صفح
ملک
حادث
شیراز
خاور
۱۹۹۷
عین
##iv
دبیرستان
۳۴
محدوده
ارزیابی
##شناسان
تجهیزات
##ومه
خانگی
افتتاح
مراکز
##ایای
سلی
چوب
سوز
قرآن
گران
##ارف
فضا
نشست
##سف
##ارتی
منطقهای
مؤثر
الهام
ماک
داو
تصاد
دانم
مهدی
هستهای
۱۹۹۱
the
اعتقاد
نیو
کربن
##اصره
میدانند
ایروان
بالایی
عک
۱۹۹۵
مأموریت
سیستان
تکنیک
فکر
##بخش
اشتباه
##غام
فرستاد
برگزاری
چنان
رفتن
ارسال
##فرد
##ولف
دانشجویان
مکت
سار
##عهٔ
کلمه
##ay
گویش
استدل
تکآهنگ
تمد
##یلی
فعلی
##پوش
ظه
سرم
##وقف
الف
مکزیک
نیستند
حقیق
##عهده
##th
رح
گوناگون
##باب
استرات
قلب
صرب
##وح
نوشتن
##ld
محاصره
بیا
سرمایهگذاری
نموده
##01
شاهد
##گاری
درگیر
شای
ویدئ
##ipedia
##all
۳۷
صب
متوقف
اتصال
مخت
##پس
بهویژه
تفسیر
صفر
کارگردانان
دیجیت
##uc
میگرفت
کنیم
روستاهای
۱۹۹۴
دهنده
##کوه
پرتاب
گیلان
##نویسی
اداری
رضا
ناو
##مولی
۵۰۰
سلسله
##ولیک
##نرانی
بخار
فدرال
##بول
انگلیس
اتهام
دادههای
۱۳۱
اولی
عمی
##وقی
اعت
##ایتد
بری
بده
کودکی
خواب
ندارند
کلمبیا
ملاق
##آر
مخصوص
درد
عف
خیر
ساحل
نواحی
کول
##ظر
عب
لوک
##موز
پنه
##ویسد
##ایزی
##قیاس
گیرد
اسید
حدی
آیین
tit
بسکت
دشمن
۳۸
سخنرانی
نقد
سینمای
نویسندگی
نوجوان
موزیک
##اهیر
مطابق
##ایم
ستون
##قف
خانوادگی
عبدالله
##کری
کانال
title
##هایش
نخستوزیر
میکرو
میانگین
##جنس
##تین
خطوط
قبر
##ندران
کارخانه
رژ
##خواهد
سربازان
##فرین
ارتق
هسته
نتوان
##صف
پروژ
##جین
مخفی
##ینگتن
وک
##tp
گم
۱۹۹۳
سوئیس
##شینی
##ختی
اکران
##زو
۱۳۰
کرهای
تنگ
مازندران
اکس
##ایا
##oc
##ak
##حیح
زیبایی
##نگاری
هفتم
دانشنامهٔ
##ess
یونایتد
حقیقت
بسکتبال
##ite
زخ
نروژ
مسئولیت
##واری
##ab
عقب
۱۹۵۰
کشورها
##لاقی
سلولهای
مقیاس
پیمان
جنایی
دادهاست
بید
مسکو
گراف
اوج
##غم
برقرار
ارک
ملاقات
مصنوعی
آواز
هماه
جوایزی
بش
قوم
##نامهٔ
##طل
بروز
بول
##وانده
سالانه
##خر
ایفا
##کیو
شیعه
اکث
مینم
همانطور
##جوی
رسم
جماهیر
Co
http
قه
محدودیت
سگ
آشنا
واشینگتن
برعهده
صورتی
۴۲
میرفت
سامانه
تصور
مغول
##کرده
زیبا
تار
لبنان
##ap
عصبی
۱۹۸۹
خواهند
محاس
فینال
جلد
بازدید
جبهه
انتظار
الگوریتم
سهام
تکمیل
حیات
هور
کاش
حجم
فلزی
۱۸۴
ردی
هویت
هوش
مض
پات
آبان
##لیف
معمولی
استخوان
ملکه
استق
ادی
##طن
غالب
آمدهاست
الح
شاید
واک
قبلاً
##میگردد
##تیو
کدام
گستردهای
خوزستان
اقامت
مایل
##اشا
##حال
آقای
بلوچستان
کنگره
راح
مذاک
اعط
St
محاسبه
نقشه
مبل
تگز
یونی
آنجلس
انح
فور
##ers
کُ
ادغام
۱۸۵
##امهای
##گه
طبقهبندی
ارتباطات
تصاویر
استدلال
مجموعهٔ
کهن
مشهد
وف
متهم
نمایندگی
خرداد
##عهد
شاخص
##وچ
مشارکتکنندگان
قایق
##گرفته
نسبتاً
رست
شف
##ویق
اعتم
ظهور
##ov
اطلاعاتی
رایان
بهار
مدرس
تگزاس
متشکل
##لف
اینترنت
##یدند
رها
##سازد
##og
مینام
##گس
نقاش
آذر
In
تها
##اجی
حادثه
الکترونی
خروجی
استع
##ادت
۴۸
حافظه
##ازدهم
پیتر
احتر
شخصیتهای
##اپور
##اکا
جدی
پرست
دش
##ینت
دلایل
رژیم
اینجا
یهود
کاربران
کمیسیون
##جار
##کهای
##03
سوپر
##راب
متخص
جنس
##لیس
خارجه
خواهرخ
حقوقی
برن
بلژیک
متف
سیگن
وظیفه
نژاد
کمونیست
جلب
گردشگری
شاخه
##راً
بتواند
##اشد
پورت
شبکههای
##بازی
سرکوب
مینویسد
زندانی
ژنر
زدن
متخصص
انتشارات
فو
بهکار
##شمندان
زمستان
لیت
تهیهکننده
۳۹
رام
لذ
##میه
صاد
کارگران
فاز
چهل
یابد
##ie
at
##اعیل
جراحی
کاتولیک
زنی
وای
۱۹۸۸
##منت
##ara
بک
معرض
هیل
انداز
اسفند
##ریح
##زدی
راهی
##ناک
##تای
نمایشنامه
قهرمانان
پایانی
حداک
منع
کنسر
##اطیسی
هزین
سلو
تبع
##کته
سلامت
۴۴
##قات
فراو
طراح
##کیه
بازیگری
فلسطین
ضمن
ریچارد
مراحل
پذیرش
اسناد
نمایشگاه
مالیات
راهن
اختلال
مثلاً
ستار
صربستان
بغ
اعتماد
مطل
لقب
غر
کنس
مناس
نخو
برلین
کیم
لیس
##sp
بنگ
نیوز
##اوتی
رهبران
کنگ
رمانتیک
همکار
متمرکز
شهریور
الق
حلقه
دموکرات
ستاد
wiki
صبح
##خیلی
فرمانرو
مخاط
دروازه
گردد
طلایی
سنج
امتداد
دوربین
مبنی
##وایی
##ag
واقعیت
موقت
همواره
اشعار
سرپر
عمیق
##11
ایوان
یکسان
۳۰۰
پرس
تغذ
تمایل
##یرو
بحران
چهارمین
اسماعیل
خن
فیلمهایی
دادهاند
ناز
##یلا
نوزدهم
۴۳
دانشگاهی
کردستان
کنفر
##استی
۴۱
##دریایی
##ين
مبتلا
##امن
اتوم
پسرش
۵۵
ناصر
حیوانات
باقیم
خروج
جین
الجز
همگانی
سابقه
توماس
خاط
سالن
معبد
199
##الا
پدیده
##دهنده
فراوانی
##روز
##ision
شهرها
##ord
اید
تکرار
پویان
##۲۰
پذیرفته
جایزهٔ
##روش
تند
پرچم
##آهن
ایمنی
حداکثر
##بند
تروری
ابتدایی
مایع
ریز
de
##قیقی
خالی
کتابی
محاسب
دارایی
کابل
پرندگان
برادرش
زیردریایی
معاد
##یسم
بوت
گوشت
amp
آرا
##استیک
##ولت
چگونه
##لاین
##گراد
ادوارد
زا
یادگیری
انف
سدهٔ
مدارس
داستانی
##وام
یافتن
تخیلی
آژ
شناخت
قطب
##غه
اسکاتلند
۷۵
مایک
سعودی
روبرو
اعتبار
میآورد
۶۵
سپرده
نماید
##06
##جایی
##سوار
نیک
پایدار
##ستهای
۱۸۳
ایرانیان
خواند
اندکی
کیلوگر
##نظامی
کاس
پرنده
##کها
درمانی
مرغ
لن
##یتا
پیرامون
فراوان
دوازده
گیاهی
هشتم
پذیرفت
سازمانهای
جمعی
دورههای
مراق
روزهای
هان
۴۷
جفت
##رهای
میلان
دودمان
غیره
ساکنان
##آب
کوتاهی
##ونز
تدوین
مرداد
ثمر
کامپ
ژنرال
دانسته
دامنه
اخلاقی
چهر
##آمد
همس
چش
لغو
چاه
##سناک
دیجیتال
کنفرانس
۱۹۸۶
##امع
##اتل
ابتدای
جوانی
ترسناک
چارلز
حین
##یمتر
تخمین
##ِر
فرستاده
##وئل
پرتغال
دانشمندان
##انکا
لاک
لوله
شیوه
جزو
##tyle
سختی
مجوز
##17
کامپیوتر
##ورهای
##طبی
گرایش
ویروس
کامی
دوی
شیرین
##بهشت
##سمه
مذهب
عادی
##کلی
افزود
##ter
برسد
خات
اردی
اطلاع
##ونها
##ابله
نیت
بارد
col
یادداشت
طیف
هال
۵۷
کوههای
میافت
علائ
##ran
۱۹۸۴
##وزف
هواگرد
۱۹۸۲
طوری
بودجه
نست
زره
۱۹۳۰
۱۸۰
اثبات
##جستان
and
۴۶
جانبی
متعدد
تخم
معدنی
آسمان
کوش
۶۴
##املی
پیشینه
موسیقیدانان
ذهن
باخت
لب
##طیل
نمیکند
ریس
##پذیری
کیلوگرم
رایانه
الهی
سطوح
فولاد
##راسی
راهاندازی
بز
##اگا
۱۹۴۰
خرم
وان
مجسمه
عنصر
زوج
##کین
ناک
حرک
اکسی
خریداری
##کوس
اردیبهشت
ذرات
تحریک
ویدئویی
۱۹۸۷
مقابله
تغذیه
ریش
##اوز
##شیده
##اکو
برادران
وست
مردی
##انگیز
ضعیف
خودکشی
نسخهٔ
دانمارک
style
##رود
قرون
آوردن
ترو
نازی
##und
دفاعی
ایکس
مارتین
بت
##ine
##گوست
مهارت
۵۲
همجنس
پید
شهید
خواص
خانم
##ورن
خمینی
پارلمان
مجمع
حامی
رویکرد
بیماران
زرت
##پن
گردیده
ثانیه
##وود
دیپلم
مراقبت
##ub
میروند
الع
پویانمایی
##ظاه
##زیم
دندان
مؤسس
شغل
##وطه
میکشد
پیوسته
##برند
##vision
برگشت
۱۹۷۹
##ادیر
##ضه
بهر
گام
۱۹۲۰
رنج
قاضی
۱۹۴۵
ملت
پیروز
##مج
##کسون
۵۳
مکتب
واس
مقالات
تجربی
یزد
موری
آدم
##ماه
مدافع
مدلهای
مالکیت
وقوع
درخش
زود
خواستار
تنی
پنهان
کاز
##اورد
کلاه
سالی
موضوعات
آمدن
ژنتی
##یتو
##84
##ارن
خز
بنای
آسیای
۵۱
کارت
مغن
درس
۱۸۱
##متر
##وره
al
راهآهن
##زید
قص
۱۹۸۵
##چوب
13
۵۴
##اطع
فرآ
انگی
اسپر
گود
جنگهای
##ساخت
اصلاحات
دال
فس
هتل
هندو
انتهای
جلسه
شهروندان
توص
##بیسی
ترور
استقبال
کوهستانی
تسلیم
##min
بالاترین
##حسین
اکثریت
اثرات
##صیلی
##rg
سون
ویکتور
لیست
۴۹
یواساس
##ایات
##ton
سانتی
سنگی
سوء
##مینان
##ولیس
انگلیسیزبان
توصیه
##سوف
دگر
دیدن
##خانهٔ
۱۹۷۲
مردمی
استخدام
پنجاه
شباه
ابد
##انید
##وشی
میخواهد
تخصصی
آزمون
##ناس
زمینهای
فیر
بهرهبرداری
##ادها
تبعید
اخراج
چشمه
تجدید
کاربردهای
پردازش
شج
سازماندهی
الکساندر
امکانات
نوار
##علیق
تلفن
##ونزی
کلید
سانتیمتر
##کال
مانع
دهم
پیشرفته
ایالتی
رسانههای
##انداز
##نات
انقلابی
Al
روغن
اواسط
باکتری
برند
##سیا
گاو
قره
کاناد
قبول
هواپیمای
بندی
##دههای
علائم
##ردی
کت
محتو
تمرین
##کوپ
درح
رسمیت
نستعلیق
##سند
سالم
آنتونی
داستانهای
رشتهٔ
نمیتواند
شواهد
revision
##itext
wikitext
ساحلی
درختان
am
بیماریهای
مقادیر
##لوم
آنجایی
نهم
##گفت
بنیانگذار
طال
##وئه
۱۹۸۱
خواندن
##وردین
بالغ
اطمینان
اود
تپ
##ئوس
میدادند
احترام
##بای
شیو
##اقی
زر
داشتهاند
روانی
بلغارستان
دقت
اختراع
وجه
۱۹۷۶
فاصل
##اشته
##شناختی
اجباری
نداشته
آمی
##انیم
هلندی
۵۶
۱۹۸۳
رزمی
ممنوع
دختران
هش
##یلند
۱۳۵۷
##گام
اعتراضات
##زرگ
متفاوتی
حاج
گرفتهاند
دانشمند
۲۰۲۵
##کسی
پنجمین
توی
پارام
آسیایی
##یای
##طلب
بره
تاون
مقط
##63
##کوف
آگاهی
هاش
آست
۱۹۷۳
##عب
اعداد
##درضا
صعود
##صفحه
##شو
ساسانی
تحویل
معتبر
صحن
مطبو
علیرغم
تقد
min
##لیا
پراکن
ترس
##ack
واگذار
قدرتمند
هاو
صداپ
##pr
##کنندگی
گیرنده
متمای
##نظر
جوامع
انسانها
نسخههای
فرام
گرین
زیستی
تحریم
هول
شلیک
##خانههای
۱۹۷۸
##مدی
##گرای
ابع
##ارو
نمونههای
##رای
عوض
وسایل
داور
##شا
##وزن
۱۹۷۵
ترین
نامش
سیاستهای
الکترونیکی
##اینام
خودم
دوک
کمتری
عموماً
جانوران
##فری
گرجستان
ظاهری
##صار
۶۳
##یما
تجاوز
کوان
##ورند
##گیل
مولکول
کاروان
۱۹۷۴
##71
جاس
##av
والیبال
تحقیقاتی
سفیر
برگزیده
بلاف
بغداد
عیسی
صلیبی
##طوری
##نای
تشویق
بکار
اشکال
صدر
2016
یورو
قار
۵۸
پارسی
کمپانی
مبناینام
مبناینامصفحه
میسازد
میانی
کمبود
لیبر
ابی
مجازات
زمینهٔ
صفوی
دستگاههای
بازگرد
۶۱
##داث
غیرق
استاندار
کوئ
##bo
طرفداران
بهینه
قلبی
سؤ
پیامبر
اهدا
فروردین
مجدداً
همگی
گذراند
پهن
بردن
##کنان
تصادفی
39
پیت
مسیحیت
ماریا
##یاء
نشر
##پت
۱۹۶۸
انع
متون
مفید
سیگنال
فرماندار
##کانس
بقیه
##ویج
قضایی
تالار
##تاژ
##نوشت
تیپ
جس
اندر
کلیدی
صحیح
احداث
ضروری
سعید
برون
08
کوچکی
توکیو
##آی
هواپیمایی
قسم
محت
ارکستر
##اعد
واحدهای
##رار
##چههای
انب
اینها
۱۹۷۱
فیلسوف
۶۶
آمو
نیل
مخلو
##ایتی
ضربه
##ou
##گور
مشک
الله
برود
##اتس
##جای
حذفی
۱۹۷۷
عهد
استخراج
ساختن
وظایف
مظ
دز
کریس
54
تنوع
خدای
رویدادهای
##َر
جاب
##and
##ونیا
وکیل
مام
##زایی
۱۹۴۱
ترجی
آژانس
فون
والدین
خودکار
تایل
##طفی
##یدر
۴۰۰
پائ
بلافاصله
کاغذ
نباید
کشید
۱۹۶۹
قدیمیترین
گارد
کانادایی
نیش
هف
چهره
سفارت
رسیدهاست
بوم
رب
باقیمانده
##قدر
##بوده
متمایز
کون
الجزایر
جبر
##اتو
اینگونه
##ئه
میکنیم
تحول
نوک
##لان
##وانه
سینه
عملیاتی
موافقت
سرمربی
هیت
##شدن
دشوار
غار
عوار
۶۲
دراز
اسلو
فرصت
امان
تاجیک
##ویو
همدان
معلم
۱۵۰
##ity
۱۹۴۴
هری
ارتباطی
##اتن
مغناطیسی
پتر
میگذارد
##قیر
##ورف
تئوری
غیرقابل
##ودگی
سهم
##ex
آسف
نابود
فیلمنامهنویسان
انیمی
پژوهشی
##نامههای
بیگ
فراخ
عقی
if
خبری
En
عمق
محتوای
##گویی
گوی
بارها
مبد
۸۵
آید
۱۹۶۷
##eg
تربیت
۱۹۴۳
۶۸
خاورمی
ویند
##ang
قزوین
دنباله
تظاه
مادرید
##لت
بزرگسال
بوس
مهار
خودروهای
آگوست
نمایشی
##خوانی
گند
رادیویی
دوچرخهسوار
##طرف
##یرا
##وکا
الکترونیک
##ign
دادهها
ناگه
ترکیبات
ابعاد
خلاف
##ew
گلی
پایهٔ
بازیگرانی
جناح
کرسی
صادق
##T17
۱۷۹
محمدرضا
##رانی
اوقات
کین
##وئی
میافتد
لز
مصاح
فرکانس
فایل
##کات
##rect
پرداخته
##span
منتقد
گیتار
بیرونی
ولز
پیشتر
##الیسم
##شیان
باشگاهی
راحتی
##فش
minor
کاوش
سوسیالیستی
خشم
آسفالت
محققان
مردمان
معدن
استح
گرچه
تقویم
تعطیل
۵۹
۹۹
تفنگ
تحسین
۹۵
تعامل
نوین
راس
##ستانه
تلاشهای
مگ
موش
۱۸۲
رومانی
متأ
کاربردی
مدعی
لوئیس
سطحی
##اردی
پرف
چرخش
جداگانه
مرور
۶۷
##direct
##جات
۱۹۶۴
colspan
جنین
تهیهکنندگی
اَ
جرج
شیعی
##چستر
درحالی
همراهی
صوتی
redirect
اعطا
داغ
نانو
موض
مأمور
۱۹۴۸
افتخارات
شوهر
روزنامهنگار
محوطه
بایر
صلاح
مصاحبه
##پول
خاورمیانه
آنتی
گره
تمدن
هالی
##فون
خواهرخوانده
فاط
۱۳۹۶
عوارض
##کولی
##cc
هرمز
##مح
آرامگاه
##هز
یکپار
کاپیت
بچه
عش
en
##گوری
آزار
منط
مدا
نگرانی
وحشی
##فران
رشتههای
##igh
هخ
##نگاران
هکت
اون
انتقام
تقا
جستجوی
مقطع
بم
۹۶
قاره
بازتاب
بص
تلقی
نخواهد
جزء
گفتگو
اکسید
درآورد
دفن
##ational
قزاق
نحوه
خاطرات
آفت
دلهره
بستگی
شام
پسران
۷۲
۷۴
سرزمینهای
استودیو
Wik
جزئیات
مینماید
تث
##رون
##ادش
شکن
خانوادهٔ
##ئن
Av
خسرو
##ber
منشأ
دیل
##چشم
اردوگاه
هیر
تاز
شری
سرگر
چالش
اضافی
استن
ناه
##cl
جدایی
لار
##باران
برمی
کومونه
مورخ
تهاجم
میوه
مرزی
عرف
مجازی
فوری
صندوق
##اقب
۱۳۹۰
محقق
تنش
تکامل
نوشتههای
##مار
##ودر
##ضان
یافتند
۸۸
بازمیگردد
##ell
عدالت
##چین
مصد
ائت
سازمانی
پین
قطعنامه
میخواست
ویدی
یاتا
##ev
سناتور
احتمالی
##غالی
مبارز
Wikipedia
بورس
سوار
##ِی
کارکنان
بازرگانی
##ud
شیشه
##فرو
غلام
کارگر
##پای
وقایع
##ونهای
آگاه
هزاره
زخمی
##گذاران
ناس
نگارش
میآیند
۷۳
زین
کشتار
بهدلیل
##est
##قانونی
حفر
مقدماتی
فرانسیس
##هنی
آفریقایی
ریاضیات
org
حرارتی
هخامن
بخشهایی
۹۸
##اشیه
جک
##عامل
##شاد
عزی
انداخت
زبانی
مطبوعات
##801
غیرنظامی
بیه
##الدوله
تانک
پستان
۹۱
باشگاههای
##نتو
##araf
مکانیکی
##استه
##ختیاری
بنام
اتمام
انیمیشن
دلهرهآور
##ریز
۱۹۴۲
سقف
مونی
استونی
##ابند
یافتهاست
##گزاری
محبوبیت
##صاب
بیس
دستیابی
سلیمان
##انز
تصویری
##ep
مهمان
غیرقانونی
نقط
##arafsh
رسماً
رئال
دکترای
Darafsh
جامد
اکبر
711
شمشیر
1003
##وندی
جمهوریخواه
39Z
484
ترجیح
##6306
11T17
711801
100371
4846306
رسیدند
قومی
سوئدی
تعقیب
۷۱
محاک
##اقد
زیرزمین
ماجرا
##لاس
##مانه
استث
شرط
حش
##ذر
وبگاه
شیکا
رع
##الین
هشدار
وسط
استراتژی
شیکاگو
عاشقانه
##نظام
معا
هزینههای
مرزهای
یوسف
کمدین
12
شکلگیری
۷۷
##ومتی
##نیز
برگرفته
رقم
رضوی
##یدگی
آلن
تکنولوژی
##عف
فراتر
اندونزی
روزانه
دموکراتیک
##اسو
محیطی
زمینههای
رؤ
مترو
شباهت
آشپ
هفتاد
آنلاین
شمسی
مختص
مواردی
عکاسی
زنجیر
تبلیغات
امارات
لوئی
ناپل
۱۲۹
وسیلهٔ
دستگیری
چکی
مبلغ
##اته
۷۸
آلوم
غیرم
رسانه
تعلق
خداوند
۸۶
##طو
##کنندهٔ
مکمل
اورش
قسمتهای
##یمه
##مده
دائمی
وضع
##گوی
##لیان
۱۹۳۹
خودروی
آو
۱۲۸
چارچوب
تدریج
حاشیه
حرارت
۹۳
##ستها
برآورد
##غر
مداوم
قدمت
مسیحیان
پراکنده
شاعران
روانشناسی
۱۹۶۶
۱۹۶۵
مقبر
مشخصات
جاذ
۷۶
مجری
بازخ
##ورده
کاند
خلبان
دهانه
اتمی
نقشهای
نمودند
شین
co
قسمتی
سنی
200
مهندس
۹۲
##زاب
##یب
حومه
ولتاژ
خدایان
ارا
آدام
مسعود
اسطور
ضخ
واژهٔ
بابل
نقض
##rict
##uction
بختیاری
##چرز
فروند
##ِن
##NA
جنگلهای
نفتی
ساک
برتری
ورزشک
هکتار
قول
چگ
##وفی
امین
اکسیژن
۱۲۰
آبهای
۱۴۰۰
سیب
##لاوی
نایب
اعزام
۹۷
##خوار
##آل
ابزارهای
قفق
تعادل
فاقد
پیکر
میتوانست
تیت
کلیه
۱۷۸
ششمین
##گرایان
ویندوز
حاکمیت
##ردگی
۶۹
نماز
تیل
علامت
۱۹۶۳
تولی
لرستان
ابوال
هاف
مخالفان
##ort
گذاری
سریل
گنبد
##ok
##سیلو
میدانست
عباسی
افتاده
##راحت
کنسول
سواح
منحصر
۱۹۶۲
۸۷
تنیس
ویرجین
اسمیت
##یمن
##لاط
اخلاق
خلیفه
##ff
##istrict
##ارم
دژ
##ریا
جمعه
آسان
تبار
##بورد
گردن
نیروگاه
##eb
داروهای
تهیهکنندگان
میدانی
اشتراک
قیام
اورشلیم
An
##لندی
نشانه
اُ
پولی
عفونت
جعفر
نکرده
ابراز
بینالملل
##وما
نظم
عظیم
رقابتهای
جسم
##نیه
اکو
رول
##سنجی
تسلط
پروتکل
دبلی
رف
لئون
تألیف
عقبن
کیت
گار
اعظم
پیروان
ابری
بستر
ترویج
نع
غنی
دارویی
ناحیهٔ
دانشگاههای
محلول
تجمع
بلا
ضل
فلسطینی
زرهی
ترجم
بدان
آهنگسازی
اقوام
میلیمتر
جاد
##وکس
اذ
##العمل
سریلانکا
ترد
میزند
شصت
منظم
فرید
##بون
معتر
یمن
زندانیان
مالزی
ردیف
مکر
میتو
##ard
کنت
##مجمو
گفتاورد
ریو
مهاجم
حاجی
عقبنشینی
18
سرود
اسکی
سؤال
کارولین
ادعای
حمام
تحمل
نشریه
بدهد
۸۴
ممت
الدین
وام
حوالی
۸۱
استانهای
ایلین
پیروی
ماهیت
شیلی
جلوی
دیسک
ورزشکاران
ظاهراً
ذوب
کیس
نشری
استعد
خانههای
اسکندر
##گونگی
اسرائیلی
بازنشسته
قراردادی
کمرب
فلوریدا
رواج
جکسون
مستقیماً
آدر
چای
شگفت
جستجو
سلولی
انجامید
رج
سول
نصر
##ایفه
کنسرت
##اهر
۷۹
هوشمند
۱۹۱۸
##oduction
صامت
استادان
ساسانیان
لور
تست
##فرینی
بازاری
بزرگر
##ան
احزاب
انگشت
##فور
جانب
کوانت
دوستی
پرسپ
##یج
سواحل
تنهایی
گلوله
قبیله
پیکچرز
##َن
نبر
استعم
انفجار
۹۴
##زلی
مولی
فیروز
صرفاً
چگونگی
کنندگان
##طف
##دود
نوجوانان
۸۲
طایفه
کینگ
کویت
کوک
ویدئو
استانبول
زلز
رسانهها
حروف
بگیرند
کوز
##اماس
۱۹۵۶
نگهبان
##مانند
آلودگی
۸۹
پیادهسازی
دیم
اضطر
۸۳
قطار
چوبی
کمال
نتوانست
حماس
##ختن
آهنگسازان
وطن
۱۴۰۱
تراک
حوادث
##BA
ترامپ
جذاب
خوار
##امد
##ادور
تثبیت
##خاری
##پرداخت
۱۹۵۸
چنگ
جغراف
##انای
معتقدند
##اعات
##je
##نیک
ساو
##li
مفاهیم
پروژههای
۱۹۶۱
خالص
عقل
موزیکال
راد
الگوی
نهادهای
فشر
##چر
افزوده
مراج
برنامهٔ
خودمخت
فعالان
بازیها
باستانشناسی
۱۹۴۷
سکونتگاه
##نویسان
۱۳۹۸
هرگونه
برنامهنویسی
سوس
مي
دیا
آگ
باران
فلسفی
شرک
ایندی
ساختاری
##لرزه
نمک
گلد
##own
آبر
##گذارند
خودشان
گلو
مزر
یازده
کردی
گورستان
۱۷۷
تلفات
##چهای
##نوع
خودداری
##سنگ
برکن
پیانو
فش
موسوم
##لینگ
آزمایشگاه
رتب
زیرمجمو
جنگنده
اتومبیل
میبرند
آذربایجانی
پاب
##قلی
Coun
تسه
##سام
مبنای
نگار
نتیجهٔ
تیمی
بهداشتی
حبس
گرگ
جنایت
معمار
نژ
بگذ
سوراخ
پرده
بارسل
مادهٔ
فکری
ایدئ
استحکام
##دیه
تضمین
##سرا
بیز
##الیز
خم
##مندان
کلر
##ایست
##فیلد
پیشروی
##سیلوانیا
هفتمین
مزار
کناره
۱۳۸۸
##بههای
کشتن
##sk
ردهبندی
##کشان
کوی
روشی
نمایند
وسیع
تیراندازی
##یافت
تخلیه
نشدهاست
مغزی
سرچشم
##ree
نکته
لیک
پادشاهان
نیشاب
##ate
کارد
بزرگراه
مایکرو
گوناگونی
نوزاد
کنون
ویتنام
هرک
اسیر
شیم
پوشیده
##لیکس
وسیعی
روزی
رسیدگی
سدههای
##جیبیتی
##ودو
بدنه
ژنتیکی
##ِل
امپ
میگفت
نیکل
بنز
##انسون
درونی
کشتیگیر
ازبک
بزرگسالان
ایلینوی
اتل
همد
اعراب
الجیبیتی
نداشتند
رنگی
عام
آرک
##صاری
##بردار
منزل
منافع
اخبار
##production
طرحهای
ویران
الیز
اشراف
۱۹۴۶
ائتلاف
فال
ارج
شوگون
Avproduction
##حان
یادبود
##والی
تایمز
براون
##ویک
##سلطنه
گفتهٔ
##ترهای
شکلی
اتوب
زمینلرزه
کانون
مرو
کبیر
##خانهای
مخلوط
##وریان
طنز
مُ
معین
معرو
افسان
##نم
##لیلی
##ha
توقف
ازای
تاجیکستان
صدور
نباشد
##جانی
مجهز
ارس
تماشا
هیپ
مشتری
محسن
اژ
محرک
داریم
قفقاز
گردان
میماند
ویرجینیا
۱۹۵۹
هماهنگی
اجزای
پژوهشگران
دستورالعمل
بلک
ریم
لیسانس
##میان
مدیره
زاویه
فشرده
هزاران
هام
##ey
##ورها
خوردن
بوی
موز
یگان
##کراسی
##عهای
فرن
15
##اسری
صداپیش
##چو
پژوهشهای
پلت
میآمد
مخدر
Ar
مقال
معی
کرب
برش
حوزهٔ
##وسا
خانوادهاش
رنگهای
تفکر
پتان
دربر
قله
چمن
پنسیلوانیا
مشروطه
اراضی
کیه
سرنوشت
پلاس
##یاط
محمدعلی
ملا
رفتند
زنگ
تولیدی
##خا
##جویی
خورده
نود
##رنگ
مرات
اسد
زای
کنف
اریک
چرخه
۱۹۳۶
دامن
رکوردز
۱۹۵۴
##پوست
سرا
میرسید
برچ
نابودی
شفاف
صلیب
جوش
##lan
شیب
دخالت
##مدت
برنج
شطر
مریم
منطقی
مراکش
نامی
##ومر
مهیج
پرتغالی
داریوش
مطلوب
قبایل
فلکی
نسبی
شارل
هوان
حقیقی
اردن
##خواهی
آلبانی
تأثیرات
۱۹۵۷
قاچ
خانوادههای
14
اسی
##مید
مقصد
تحصیلی
هایی
وحشت
جایگزینی
پرسپولیس
کلو
##گرو
میگرد
کمون
۱۹۴۹
بیبیسی
بینی
عقیده
##ly
استادی
الن
۱۹۵۳
##ارهٔ
هواد
فهرستی
##جن
تومان
##up
متال
جلال
##ستا
کاربری
بتوانند
بازرگان
وع
بالینی
سانس
نیکول
پیا
شناسه
جوی
##ازن
طاق
یار
پیدایش
شکنجه
پایی
##سرای
گیم
اندیس
##پردازی
سکه
املاک
۱۹۵۲
محاکمه
۱۹۵۵
بهرام
آبادی
اختصاصی
الیزابت
رتبهبندی
خانهٔ
بزرگان
شکاف
نوازندگان
مرجع
##مسیری
##سنگی
۱۳۹۷
مخابر
خبرگزاری
رقیب
امواج
استودیویی
تات
بیانی
ساختمانهای
فاصلهٔ
##لامی
اوهای
تکیه
کنی
شبانه
یازدهم
##اندی
نفره
دستیار
##فال
ماساچ
قائ
##سافت
میچ
بوکس
هماهنگ
##ae
یکپارچه
##ight
پرتو
جری
فروپ
ویژهای
بهشت
واسطه
همسایه
ریک
ماجراج
انتخاباتی
خطرناک
طر
کرا
کوهستان
برانگی
ماساچوست
دورانهای
کارآفرین
##ian
ایس
اندازی
غزه
کای
انبار
آوردند
فراز
##ry
تقسیمات
احساسات
اعتراف
براد
ترکمن
یانگ
تظاهرات
۱۹۱۹
گزین
County
##صلی
##کاران
افسران
وسطی
۱۹۳۸
شبکهٔ
اروپای
میخورد
##رکشی
طوف
##۱۹
خلافت
ریخته
حکومتی
##enter
مادری
##نون
اوهایو
منچستر
۱۳۹۲
زیرزمینی
شکایت
16
##لاو
##ابتی
حامل
زلزله
نیازمند
غالباً
قدم
مرحلهٔ
ثروتمند
##افزاری
زرتشتی
اکتش
کلم
نامزدی
قاچاق
##ورز
##round
ارتقا
دارا
مصطفی
فقه
##امیک
اخذ
##وتن
پایینتر
سایه
202
بهنام
کلمات
مجتم
دروغ
تول
##oot
وحدت
##لسی
بنیانگذاری
اسقف
فساد
وو
##فاری
مداخ
ساختمانی
شناختی
ریاض
بدی
استعفا
پیشگیری
امامزاده
اسلحه
هیتلر
دیو
دک
back
حوزههای
۶۰۰
۱۰۰۰
سپاهی
توده
ثروت
درگذشتهٔ
آنات
##نفر
ربات
افتخاری
ماجر
ذهنی
شعار
پیوستن
استقرار
دخت
ضریب
تلفظ
راز
##ob
۰۰
الکترو
صفحات
##جیه
گوگل
##وگرافی
کارایی
نامید
چندان
جزیر
معکوس
دورهای
الا
نشود
نوازنده
Par
عبری
تزریق
##پذیرد
نیمی
برساند
##ابین
کشیدن
شطرنج
صوم
باکس
##یتوز
قاتل
Un
كه
اندیشه
##داول
سیاره
##ئول
رستوران
پارس
دموکراسی
محافظه
کتی
##قد
بنگل
##خل
##حات
مقررات
شیعیان
لنین
نیازهای
معیار
ناوگان
قزاقستان
##شههای
کریم
فانت
دیزنی
دایر
##ومیت
وایت
پد
##امید
طرفدار
##te
سراسری
میخواند
##کیک
مذکور
مهاجران
سیاستمداران
مرگش
کهکشان
##ولوژیکی
شاگردان
تأثیرگذار
##فهٔ
بپرداز
##امله
##ابانی
مرده
حساس
##وآ
هاکی
شریف
##ارتمان
جانور
آرتور
زیستگاه
گزارشهای
##tic
هشتاد
بهخ
##سوم
##کنی
align
##بزرگ
##۱۰
سرنگ
##ومن
طلای
خواجه
مراجعه
آنا
دایره
سنگهای
نمیده
سرگرمی
گندم
##ووا
سینا
##ّه
۱۳۹۴
آشنایی
رمانهای
موجودات
کاپیتان
تسهیل
منتخ
آلیاژ
نیوجر
صندلی
علیا
اعضا
بدل
تراکم
بماند
##جوقی
جواب
بیمه
فای
ساق
الکل
##ong
آمدند
کانی
یونسکو
ریت
بوشهر
##شایی
##ردن
تعمیر
شاگرد
سرچشمه
##ئور
منف
اردبیل
وات
سلجوقی
فردوسی
ضعف
##چن
رفع
پزشکان
##لد
##az
بهطوری
رستم
ترش
محاسبات
رعایت
نیوجرسی
شانزدهم
to
هواداران
##iz
##پیم
##قراری
##اریان
جسد
درجهٔ
کرواسی
آلومینی
##بریج
نیوزیلند
بخاطر
دستهبندی
ولس
##فرم
کالا
ساختارهای
مذاکرات
دختری
##فین
جاری
قربانیان
جوزف
##هادی
##ّی
آبشار
نفع
##سواری
##گوش
##سوزی
۱۹۳۷
ممنو
آیر
ونز
هشتمین
کوانتومی
##ground
##غلی
۱۹۵۱
راتن
ریاستجمه
پراک
زیستم
گلستان
فرعی
ژر
زیارت
مکانیک
آکس
گربه
تعهد
کلان
##فترین
ابداع
آیت
شوالی
کمربند
##ضل
پردازنده
خلاق
شنی
مذاکره
سمی
##سلی
فاش
##وتری
مینامند
۸۰۰
گویند
تسخیر
تزئین
نهایتاً
اشیاء
نبوده
اندام
توط
کاو
دوازدهم
گناه
st
کمان
نمایندهٔ
##کردن
لغت
ویسک
علاق
معنوی
پیشگام
زادگاه
علاقهمند
بات
جنگلی
کارولینای
##نشاهی
پاش
پیادهنظام
بقایای
نوبل
متوالی
background
##پین
خراب
صادرات
ریاستجمهوری
##زیست
۱۹۳۳
آرت
مطالب
شتاب
فلزات
تابش
##اعده
اقلیم
خطاب
تصمیمگیری
رسانهای
گمان
شاهنشاهی
۱۳۹۹
مونیخ
نفس
کمپین
پاسداران
##افل
انفر
اعتص
موازی
##الها
۱۹۱۷
پتانسیل
رضایت
سردار
موت
##ئینگ
برآور
آثاری
لشکرکشی
رابطهٔ
Am
پایداری
مولکولی
##خاص
##برز
##گونی
لیور
فیلیپین
معنا
داگ
لام
سوئی
Sh
بتن
دهههای
استیون
دهان
عراقی
هیدروژن
##EA
اقلیت
اهواز
۲۵۰
بون
عرصه
تطبی
##دهایی
وسعت
##اندا
شکسته
افسانه
مینه
خاکستری
سازنده
زیبای
تایلند
فروخته
خنک
##حیطی
مصوب
آزمایشی
سرپرستی
قهوه
##اریو
انفرادی
مجاور
فروپاشی
گردآوری
##سایت
تماش
##خوان
دولتهای
##ینژاد
آقا
wikipedia
مایکروسافت
شهردار
یوتی
گرما
زیستمحیطی
##وکو
دانشجو
واکنشهای
معادله
غذای
رگ
کشتیهای
فروشگاه
تومیتوز
ماجراجویی
نادی
یاری
لول
##رگ
##ودا
وابستگی
اثری
سفارش
لحظه
چگالی
II
##مندی
ساری
جغرافیا
##وفر
##مول
اتوبوس
نمایان
مزرعه
ph
میشی
گلدن
اقتباسشده
صدها
سرقت
ترانههای
##کیان
##۳۰
##cy
گرمی
##مراه
قصر
پمپ
##گرهای
هاپ
سلطه
متفق
on
##بتی
مرتبه
خشکی
سرور
مترجم
ونیز
گلوب
##پیوند
مجتمع
تونی
##ئل
متداول
لزوم
کابینه
میت
هرات
بلوک
فرماندهان
طالبان
توری
جشنوار
یاس
میپرداخت
مشتق
تشدید
جنبههای
شورا
شاپور
مؤلف
اوم
##سترن
فاطمه
مقبره
##چیان
نیشابور
توسعهٔ
قطعی
یان
بادی
کاک
نمو
معامله
آرایش
آفتاب
زمینشناسی
رایگان
بهائی
حریف
##ُر
##اسازی
هاشمی
رتبهٔ
center
##order
بارداری
افرا
نهمین
یوگس
آئ
حبی
##ینگتون
کنستان
منتهی
بایرن
جون
مقدونی
تأخیر
۱۲۷
اردشیر
چهرههای
##شوند
۱۹۳۵
دقیقاً
هواپیماهای
روبه
کاترین
میشده
تباد
فهم
نقشی
##روژن
طبری
شیطان
توانستند
راستای
عمارت
##بستگی
عجیب
برقراری
امی
##ویهٔ
بالق
تکنیکهای
کمکهای
ایمان
کیک
سرهنگ
خواهان
کرک
حرکات
ماتریس
امضای
سامانههای
##io
انس
متنوع
شاهنامه
۱۹۳۴
باکو
##کانی
آنزیم
##box
آموخت
##وهان
بیلی
افکار
##العاده
برداری
دفع
زنجان
مشابهی
سفلی
ویژگیها
پانزده
بام
##میلی
ناشن
قاسم
منی
دخترش
چراغ
نظرات
رونق
رقابتها
##ساله
پیگیری
ستارگان
##سیه
جمعیتی
سازگار
مناسبت
میشیگان
Old
دادگ
عط
روزگار
۱۹۳۲
مادی
فرقه
شاد
سنا
منحل
۱۳۹۳
متعاقب
##ue
وبسایت
شنبه
اچاماس
لوب
پوند
۱۶۰
##مره
کارشناسان
زیرساخت
موتورهای
Hun
کنوان
میبیند
##الیست
هاید
فاک
برابری
لذا
##لیو
بردند
دب
پرک
الت
داروی
ساند
##روس
مشتریان
هوی
میزبانی
پرش
##بالله
##ریبی
##اپذیر
مخزن
راهنمایی
نوآوری
گچ
برف
مصری
دهی
جابجایی
قش
حساسی
لیبی
هالیوود
ببین
##یکس
طبر
باخ
گرا
##لیق
کنوانسیون
##فیا
توالی
ولسوالی
##گشت
سپری
۱۹۲۹
دادگستری
باشقیر
##int
پاییز
اعم
زور
##ast
پیست
۱۳۸۹
منتخب
مأموران
##land
کلین
بارسلونا
##شترین
معاونت
اموال
مصاحب
بیزانس
##اهو
بگ
ویکتوریا
سانتیگراد
##پال
##ka
سرپرست
##ردو
تقلید
۱۹۱۴
مرتضی
اسکن
عدهای
چن
علیرضا
تمایز
اندازهٔ
رسوب
وود
##لوک
بازاریابی
آتل
بهو
کمدینهای
##ens
##جوانی
آتشسوزی
استانداردهای
آدرس
بهخاطر
معلوم
کرم
ملتهای
بنگلادش
ستایش
ماژ
اینچ
سیزدهم
غذاهای
چم
ارومیه
متقابل
درج
تران
میگذرد
دشمنان
معاه
تخصص
Mar
باتری
زهر
روزه
یوگسلاوی
مزایای
دیپلماتیک
##rch
border
عالم
##یله
فرمانروایی
کندی
میرساند
بیلبورد
افزون
نحو
دانه
نبودند
##اشن
شاخههای
نادرست
##تیس
اختلالات
سپه
دکتری
انبوه
بردار
الکترون
نمودار
##چهٔ
تاریک
##حق
نمیکنند
مباد
داوطلب
##ستیک
شناختهشده
قضا
همت
منصور
اوض
شدهبود
چشماند
یوش
سرت
راههای
لذت
هخامنشی
گوت
شایع
هانس
##کاک
##اسکا
کوبا
تان
طلاق
متحرک
مشهورترین
پژوهشگر
##بدی
سات
##پزشکی
تورنتو
باشقیرستان
شرکتها
##اردو
ارباب
سابقهٔ
ارتفاعات
Ma
موضع
اعتصاب
مارش
##شع
##شای
عمودی
شعبه
سازهای
قهوهای
##ابن
سیزده
۱۹۲۱
جونی
انتخابی
اوضاع
##اییها
##ill
غلظ
پلیمر
خامنهای
کارکرد
خانوادهای
قضیه
مند
##زون
۱۳۹۱
اقت
فیلتر
ضلع
دوز
دانشآموز
متفقین
اپل
##گاوا
اين
##پایه
شرایطی
خودمختار
ازبکستان
##ساوی
##ستهٔ
درمی
منه
##یان
جانشینی
جلسات
آشپزی
لوت
##ug
طو
بازیابی
۱۷۶
team
آوی
خواسته
وص
##ne
##ستد
##وندهای
سوره
##اوری
آنگاه
رش
شریک
اعلامی
##۱۳
بحرین
مسئولان
منحنی
زودی
##لاحی
تسلی
https
آهنگهای
old
نویسندهٔ
کارنامه
ناگهانی
نوجوانی
##ure
یعق
گذار
هادی
مجاری
قنات
اطلس
غارت
چندی
عز
قوه
یور
مانی
##ادات
ادر
##جهی
سردبیر
حسینی
##الن
اشتغال
سح
##ومو
مناسبی
سخنگ
دائم
هافبک
استون
ارم
مقداری
کمترین
انست
##وئلا
##کب
پرداختند
هجدهم
بازارهای
فقر
پنجره
حالیکه
##طاف
##تیم
تونس
چنانکه
Pro
فد
جنسیت
مسیرهای
باریک
آماری
##مود
##فتی
۱۹۳۱
دهلی
سادگی
شهرستانهای
شبیهسازی
امکانپذیر
آندر
طرز
نظرسنجی
##onge
شمس
مکرر
##سایی
بولی
هلی
متنا
کنش
۷۰۰
آغازین
اصالت
۱۹۲۸
national
##طوب
##بایی
اوراق
Chos
لیم
آلبرت
##اطقی
غرق
درحالیکه
und
جانسون
سازه
نازک
ناق
##وانگ
بیانیه
رن
شماری
پیچیدگی
۱۲۵
تفکیک
آزمایشهای
District
فرایندهای
طوفان
کوس
حوض
##بیا
##ball
۰۴
##ŏn
جمهور
Can
##جمی
شراب
زمستانی
پابکم
فاج
نقص
رایانهای
مستعم
##ولن
بناهای
ساوت
اختلافات
##گارت
مجلهٔ
##فان
##سور
بهه
Chosŏn
##سیان
دِ
gŭ
درستی
##ndex
gŭl
برپا
##minje
Hunminje
##ongeum
Hunminjeongeum
گاهشماری
میدانستند
پورنو
سزار
نداد
##کردهای
##بهای
پدربزرگ
مناطقی
حمید
ملاح
##کنهای
اورت
##رضا
##راض
##امو
تواند
محض
کتب
هرمزگان
شناور
تشی
دویست
مقاوم
فرآین
۱۴۰۲
موسس
##الوگ
عقاید
##شتاین
کارمند
چشمگیری
برگزید
آلوده
جامعهٔ
تبلیغاتی
کشیش
مشا
##الیای
واقعاً
##سالاری
حیاتی
فاکس
##جمان
معروفترین
بصری
فزای
عملاً
ژانویهٔ
تورم
۱۹۱۰
جونز
ناد
۱۹۱۵
فاض
Th
عامه
مینو
راننده
آیه
##ودور
میخواه
اوب
کشی
صومعه
جالب
فریب
##ریر
۱۹۲۴
##الملک
##ینگن
گوار
##فیق
##ship
مخاطبان
انعطاف
زرین
تاثیر
##ریشی
##مانده
سنای
واقعه
مکانیسم
دانشجوی
##احمد
بروج
گوشی
درخشان
پرویز
نقلیه
خیانت
صلاحیت
همینطور
##ولان
##پردازان
انق
کتیبه
دستاور
طلب
تأسیسات
۱۱۰
بالقوه
اسن
##جمله
طعم
تیمور
فعالیتها
##۱۲
بمباران
آرای
سندرم
دوگانه
هات
خیال
رانندگی
مناق
گزارشی
چربی
##ماهی
##end
ناپدید
##ach
اساط
برچسب
راسته
حفاری
۱۲۶
زنجیره
جمشید
پروانه
۱۹۲۲
راند
##ایب
نجف
تبادل
##باغ
تبعی
فورد
##الس
شکر
شخصیتی
##جب
##کره
۱۳۸۷
هندوستان
فرق
ادیان
جهش
فرآیند
تولیدکننده
دوب
تلگر
معادن
شل
##رسانی
واژگان
دیوارهای
##بورن
##جویان
فرس
##ore
احیای
سندی
ایام
موسوی
##موند
استرالیایی
##ootball
##ومان
بودایی
th
قطبی
تروریستی
تراف
وضو
##ارشی
بازنشستگی
لیورپول
سرب
جنج
اشکانیان
قایقران
حالا
حامیان
فیزیکدان
##پرسی
لات
تجرب
داک
عظ
امری
ناصرالدین
لانگ
۱۳۸۴
آلومینیوم
##if
##ّت
درگیریهای
لیزر
##برتو
بدر
شاهین
نمایشهای
گیری
##وریا
ارن
کارش
توانسته
۱۹۲۵
استراتژیک
sol
##ver
بدنی
اوک
سلاحهای
جبران
لود
ارمنیان
اخیراً
خوراکی
##وکی
##عل
شیرازی
ایلام
بروک
کرون
جستارهای
واسط
##ریحی
حرم
##سیلی
غی
بلور
استناد
مسدود
دادستان
چشمانداز
مجاهد
##لیمی
پارتی
فمینی
##صدی
۱۳۸۶
ابتلا
آفیس
آکسفورد
۱۷۵
ژاک
سمف
تصادف
محدودیتهای
هفدهم
تکه
حملهٔ
ونزوئلا
index
مرطوب
فجر
مگر
خرس
توجیه
زیستشناسی
۱۴۰۳
لوازم
##بیاس
جورجیا
درآمده
##سیتی
گواه
راین
قالی
مجرو
مورخان
بگذارد
htm
ماجرای
لاس
استعمار
##فو
وصل
گرمسیری
نوشید
دیدگاههای
فرهنگستان
##سپاری
##دیس
اپرا
ممنوعیت
بهجای
فعل
سالگرد
کوهن
۱۹۲۳
مکعب
خزر
گلهای
غول
##ارها
##سکا
گش
دانشجویی
چهارده
خیالی
آستانه
رپ
عمان
پخت
توه
نمیشوند
فقیر
سیما
##اسپ
گواهی
مباح
همسای
##ایلی
۰۵
ببرد
پوت
##سالی
##فتگی
مینمود
ثبات
##ئینی
نورث
دونالد
دبی
۱۷۰
نوروز
##اهره
آنتونیو
مدیتر
لایههای
خاموش
مساوی
احمدینژاد
جوز
زغال
##յան
##۴۰
پیشنهادی
##پوستان
مدیترانه
##نجان
اندک
حساسیت
رین
سولف
مداخله
محروم
والتر
یکبار
##ولوژیک
##اتوری
اجتن
باله
تعوی
مدرسهٔ
انتر
المل
##اسمی
مود
فرص
چسب
هاروارد
آکو
سیت
معانی
ورق
دهک
بوستون
زبال
سونگ
آفرین
دوری
مفهومی
میکنم
پیرو
Town
##ib
##بوک
هستی
کراس
گست
نادیده
ویلیامز
فوقالعاده
فاکتور
Sp
##اورت
##شاری
کاراک
##ive
واپ
##دو
استانی
##سازند
عصب
سلامتی
##ادیم
کوچه
گفتند
198
ناخال
لبه
دارم
پارچه
نیازی
بالاخ
نقطهٔ
##خانی
طولان
چهاردهم
##شکاری
اشخاص
ادو
نظامیان
ترجمهٔ
توطئه
مینی
مصالح
هیچگاه
غلظت
سارا
##px
۱۹۰۰
یام
جامعهشناسی
کتابها
فیبر
ww
آلپ
تابعیت
صاف
##ابهای
نوسان
نشاندهنده
مبدل
لطف
تعلیق
رنس
استالین
رفتاری
توکو
نمونهای
کالاهای
دوستانه
##ایند
ماهواره
تبعیض
زرا
آرم
روشنف
##تان
نمید
وزنه
الفبای
ورم
##ستن
##اوین
##فلیکس
نقاشیهای
اپر
قند
جاسوسی
کوین
تقدیر
محرم
##گیلویه
مشخصی
چو
۱۹۲۷
سوگ
نتفلیکس
##وئید
##فیه
اختصار
آجر
معترضان
فانتزی
Free
صالح
وسترن
همبستگی
مدارک
اوس
بلندی
انتخابیه
افسردگی
ماندن
کهگیلویه
شهروند
تیلور
ایزد
قرقی
##انیوم
##وها
متقاعد
کوهی
##طوبت
بیابان
کنم
##انتا
##clop
سازگاری
کریستین
ثان
مثلث
مواقع
##ترا
فرنگی
php
##وسفید
والت
رطوبت
##ایس
استعداد
شیوع
آرامی
استوار
نژادی
##کنه
نوشیدنی
کارگری
۱۹۱۲
##اهدی
عال
کورت
##سوتا
ضخامت
##خره
لحظ
گازی
میبین
پوسته
##مداد
سقط
جانی
سوپ
اسکل
کمبریج
خرده
گوشه
##cyclop
الته
خاصیت
آرامش
##بعدی
خوشن
انتقادی
##دادی
تله
برگرد
نسب
##نگری
مجزا
کوروش
##خه
اولویت
۱۹۲۶
استراحت
آتن
نمیر
حرکتی
مزیت
آبیاری
رفاه
کپی
##ah
بنیانگذاران
عروسی
##ادگان
##استین
under
football
##اندو
داوری
داوران
##SA
ساب
www
نامز
سوابق
نظریهٔ
شغلی
##aw
##نامهای
رساندن
mol
کیر
اینست
ارث
##نند
##انیای
نیج
وضوح
قوای
پره
مفصل
باره
بازماند
دلاری
##زبورگ
ارمنیتبار
فرش
میبایست
تقسیمبندی
##اروس
آلفرد
میرسند
پرسش
##گرفتگی
##se
انگیزه
چاق
بکشد
جابه
شناگر
ارزان
مینهسوتا
آفریقاییتبار
تقاضای
##یع
هیچیک
رفتارهای
گریخت
solid
شایسته
##یته
قائم
تساوی
همکاران
توت
میریز
۱۹۱۶
Encyclop
ناشناخته
##وکار
##هایم
زبانها
فناوریهای
نگران
شنا
لویی
ییل
##یو
روایات
گرجی
گونهها
میکرده
##لمانی
##گیرد
جنسیتی
پروفس
هون
##ary
ترافیک
دهها
میشن
روسها
##اطه
مختصات
ژیمن
شکم
منحص
الماس
##ph
##ازان
تورن
بعنوان
##َل
کردم
جواد
##يد
کنارهگیری
برهم
تاجر
##کون
مجاورت
راجر
صداپیشگان
سانتا
فاضل
for
##رسمی
مسافت
الیاف
پاول
بویر
سیاهوسفید
گیرند
بلی
کرج
تصویربرداری
##پز
جراح
سنتز
##اشاه
میشل
گروهها
تدار
کودتای
کاندید
گرافی
واتر
##یسون
نهاده
##آبادی
دومی
نشانههای
رساله
طبرستان
Sc
##لوب
هستیم
حدودی
##فن
غیررسمی
##اینی
ترانهٔ
اسارت
استیو
آشور
##ئوپ
نقدهای
Dm
شکستن
پاکسازی
کنفدراسیون
##گرم
موقع
دمشق
بیتی
##did
آلفا
رصد
مستعار
فضاهای
##ّد
برمیگردد
حدیث
قن
پردیس
موریس
هاین
فیفا
زاگر
برایش
نائ
##آفرینی
ایرلندی
افشار
کوچکترین
جسمی
##رداد
##اضع
Encyclopedia
روحی
سریالهای
بوسنی
##۱۸
استار
##یلو
Township
تحق
هندیزبان
ندر
البرز
قضاوت
کبک
زنانه
##man
میو
##اداری
##اصب
ماهیچه
فاجعه
سنگاپور
##بهٔ
##نمایی
داع
خونی
زندگینامهای
##one
پالایش
##ّا
قبرس
سهگانه
لوح
نهض
طباط
##باشد
##تره
الگوهای
##انورد
جهاد
ترسیم
##گرایانه
لرد
##وانا
##خاذ
##منان
هجوم
حجاب
اکتشاف
فتو
##فسی
سیست
##لای
شیوهٔ
فسف
روده
جونگ
احکام
اصرار
میدارد
فرضیه
گینه
Dmbox
فراری
شبهجز
پایهگذاری
تروریسم
بنیادی
روحالله
ارگ
رومیان
زه
الد
ابتکار
مقالهای
اتخاذ
مدتها
##گیاش
پرسن
روبهرو
##ویژن
سیدنی
کمکی
ماندهاست
##تیپ
نواخت
پروفسور
##کسید
نرمافزاری
فیلمشناسی
شلو
نوشتهٔ
خشن
##تها
##چال
پانزدهم
یورش
میتوانستند
راهبرد
عثمان
##ادن
اسماعی
عارف
##مئن
طبقات
##urn
گرافیک
##art
##فاده
فردریک
بهوسی
یحی
##ارکی
خاکسپاری
توکوگاوا
##ژو
سودان
معاهده
اجتماع
مشاوره
##شدهٔ
اقتدار
##یهای
برقی
##گاس
تضاد
عسل
تعلیم
##کینگ
کشورهایی
##کوب
##فروشی
نامشخص
راهنمای
فریدون
دنده
درسی
CO
جیر
##تیکو
##مزد
##باع
استو
مخرو
فورت
##ve
شدیدی
بلوغ
تولیدات
##نشان
غلبه
صی
اپی
تضعیف
دیپلمات
نشانگر
گرگان
##َه
قارچ
حیاط
سرشناس
##گوریو
فوریهٔ
##ft
کارگاه
##لانی
آنگ
ریاضیدان
تفریحی
تحولات
ترابری
لایحه
سیال
پلاستیک
زدند
یعقوب
توپخانه
ریه
لوم
##رسان
بیض
نمیکرد
واکسن
رزم
##فهای
متناسب
صاح
قلی
آنی
تقریبی
۱۳۸۰
اتهامات
سبزی
##اباد
تحریر
آداب
##تونی
پودر
برداشته
##عان
دوق
دلا
سامان
خدمه
##طانی
نمیتوانند
##زاس
لباسهای
چندانی
مکزی
خنثی
بهطوریکه
رابین
مکه
افقی
مرکب
##نبرگ
جادو
تایوان
جیمی
گزی
##۶۰
اقتصاددان
شیوههای
گروگان
سرتاسر
##َم
لری
##تز
##فورت
کامپایل
پیل
طن
عضوی
فرضی
ریسک
وادار
جداسازی
##ich
مشاغل
##اتان
مدی
آلت
اجم
دوشنبه
بدهی
میپردازند
لیبرال
فیس
فقیه
روانشناختی
ناشر
واض
خواهرش
بنت
مقدمه
عددی
دوچرخهسواری
##عکس
حیدر
پیوستند
داوود
##سیو
تاسیس
##سوی
افزودن
ئی
فرهاد
ابریشم
سیسیل
##لسون
##احتی
مباحث
شادی
عزیز
نشریات
##وون
##عام
مسم
خبرنگار
مواضع
##یافته
کتیب
احاطه
پرفرو
##انان
ابزاری
لم
۱۹۱۳
دبلیو
اجتناب
اصفهانی
سوسیالیست
رنسانس
آرمان
پروس
آلبومهای
ذخیرهسازی
برکنار
##گزار
##رق
بوش
آرد
سواره
مدیرعامل
##۱۵
نمونههایی
گالری
##اهام
اسامی
##میک
مجید
بلندترین
##ala
کریستال
پراکندگی
Pr
لینو
مزد
وج
هرچه
تحقق
عادل
کهنه
احتی
گفتار
گزارشها
##تینمنت
بط
بابت
وعده
استیل
انکار
تاریکی
##بولی
سرس
گذاشتن
دانشگاهها
برایان
اساساً
بههمراه
ناسیون
هاد
جنبه
میگذارند
هارت
تشکیلات
سهر
##جمعیت
اصطلاحات
ارزشمند
بابا
داعش
Te
جاند
##ccess
مارشال
##مرد
قوس
##na
۱۳۶۰
کرت
تندیس
ol
گا
محمدی
بخت
کامپیوتری
ریشههای
نمیدهد
خطرات
تقدیم
بُ
##گرافی
ارتقاء
ماههای
مصدق
پدری
##کینز
انط
آثارش
رونمایی
##yp
##فعال
دپ
عاط
##شهری
وحش
مجروح
بهتری
فلات
متوسطه
##ind
سنین
یحیی
اعصاب
ارتد
وارنر
دانستهاند
انقراض
تفاوتهای
شورشیان
ژوئیهٔ
مسافران
زرتشت
تمیز
##زوی
##اکری
انگور
احیا
نهضت
مطمئن
خیابانی
اوی
##یتون
ساعات
جاز
کارمندان
##dice
مطلع
نیجریه
ملقب
197
##امیکی
شاهان
هرز
ملحق
زنجیرهای
یکشنبه
پستانداران
##حلال
##وسن
تناس
contributors
پویا
پرسنل
اراک
خوی
قاهره
هستم
شانزده
تونل
انتظامی
آلمانیها
جغرافیای
نمادین
لژی
##age
خاست
##مکن
##پرستی
آمادهسازی
دیویس
ادامهٔ
##سنت
##۸۰
میآورند
انیمه
حشرات
جونیور
رمزنگاری
ارنست
F8
معل
سیصد
تکثیر
بومیان
بهدن
##مرانی
گوگوریو
زاوی
##ير
##CA
##اهه
الزام
پرستش
##پشت
##نگام
خونریزی
ارشاد
##پند
بارش
خاکی
تصدی
خیریه
مراتب
پود
##دهندهٔ
ناص
##دون
##رویی
##الف
سخنان
کلاسهای
گذرگاه
##گم
مناصب
نوادگان
رسول
پوز
علل
##EABA
باس
سبکهای
بانکی
مطابقت
F8EABA
اتیو
شهادت
طرفین
فیلمساز
##وندا
خلال
سخنگوی
ندرت
شعری
باه
تصحیح
ماست
ولادیم
میپوش
صرفه
مجاهدین
##ولار
۱۵۷
##استفاده
تقاضا
##جهای
اتیوپی
##اگاس
ترانس
کیهان
##اوا
بهینهسازی
##ادف
##اتیو
##فلد
قرقیز
کاتال
زایمان
خطا
دبیرکل
##۲۴
عناوین
نخل
Le
۱۹۱۱
گازهای
اجاره
نامو
هندسی
عبدالرح
معتدل
عید
##انتس
اوپ
استودیوی
برآورده
کریک
گوسف
ایدههای
پدیدار
ناپلئون
codice
انجیل
ویتامین
فضاپیم
مخف
##گوئه
سروده
غیرد
انگیز
خوانندهٔ
۱۵۹
کروز
##۱۶
تلس
نئ
##ینها
دیانای
25
سوری
##لن
##عباس
بشک
##ظمی
ادب
منتظر
محیطهای
ذیل
##ُم
نمیشد
##باق
##میزی
##02
ملیاش
##لسازی
صحنههای
نکند
ترانهای
پرفروشترین
مراد
مبارزات
متعاقباً
##uk
کمین
پیشرو
بارندگی
سامور
برجستهترین
اندرو
##شدگان
حکمرانی
پیراه
محکم
ید
خویشا
رفس
ریخت
شدهٔ
منعکس
##متری
تهاجمی
##اشناسی
oldid
زخم
۱۹۰۵
آینه
مجلات
علمیه
##اهدات
یکنو
همای
فرمانداری
بحرانی
##مق
موم
ژرف
##طح
##ith
رضاشاه
مائ
شاهی
آغازشده
وه
زیرمجموعه
یوک
##۱۴
بستری
بپردازد
میس
بانوان
##اي
نورد
روحانیون
اقلیمی
##زادگان
محاسباتی
لید
برو
رید
پانصد
##پیچ
وارث
لوس
مربیگری
آناتولی
آندره
مدینه
پلتفرم
نگرفت
موجو
##انسین
فلورانس
برنامهها
موسسه
الکتروم
قدس
مشاهیر
عروس
شانس
کاشی
بروس
##طلبان
مَ
کشاورزان
دوش
۱۳۵۸
ورشو
##ath
۱۳۵۰
##05
روشنایی
##سار
روت
۱۹۰۸
بزن
تغییراتی
دامداری
یونگ
کودتا
##زونا
سیلی
قو
میپذیرد
سریعتر
سیستمعامل
##استیکی
نحوی
اسطوره
رأس
اولیهٔ
##EC
مجسم
آلاب
##ock
انحراف
ایندیانا
##خیز
اوکراینی
گزینه
حول
##ازون
##رفت
##کسلو
پیامدهای
بابی
موضوعی
مانو
مکس
مرمت
آرسن
محتوا
بویراحمد
۰۳
۱۷۴
قدرتهای
انحلال
معامل
خوزه
بازخورد
##خد
انتصاب
روزمره
خزانه
غن
##برانگیز
یاران
##ذی
##ومند
بهکارگیری
##اخان
نوه
راهپیم
رسان
تامی
##۲۵
##ile
حاکمان
بینایی
IS
سعد
اسپین
ایدئولوژی
لینوکس
ولادیمیر
access
خوردگی
زائ
یکمین
کیش
صفویه
ویراست
گونهٔ
اتفاقی
یونیور
میگرفتند
بیگانه
سپرد
##ومتر
اقیانو
هاب
آریزونا
متاب
کارآمد
متروی
##سوس
##روت
بارز
ویلسون
تردید
میشناس
مزارع
۱۰۹
کسبو
مهندسان
نوشتهاست
قائل
ازجمله
##ant
آمل
میگردند
لوی
هورمون
La
ماگ
همایش
مهارتهای
تعویض
##AC
مسابقهٔ
##شدت
ارزشهای
شجاع
کاشت
هیجان
لامپ
##فشان
##۱۷
##راق
ادارهٔ
تعطیلات
So
خمیر
تجربیات
فوک
نابر
##ایری
ثانویه
ماور
۰۹
دانیل
منسوب
دیکت
سکوت
میفر
بسیج
پسری
خوراک
##yn
##ice
امیدوار
کلارک
۱۳۷۰
قبرستان
سونی
##استر
مشروط
نک
هندسه
شعاع
فصلی
خورشیدگرفتگی
واردات
ایمن
ماداگاس
عکاس
##نیف
بازرسی
تیز
عایق
فرزندش
هدیه
مسیری
وزیران
نیروها
##روشیمی
##اریا
کوره
وفادار
میکروسکو
۱۲۴
رحم
##چیز
##باخ
دیواره
قواع
##کیم
زام
سواد
ذخایر
نجیب
بیک
طباطبایی
آنرا
##پیوندد
##ینس
بب
تنگه
##ویگ
نفری
متخصصان
شبهجزیره
باشید
اروگوئه
سج
گشود
##ندها
شخصیتها
مرسوم
تبر
جت
##یتس
مثبتی
##lo
##شکده
وفاداری
مینمای
حوضه
اشع
نسلکشی
شوهرش
تقی
راحت
اساطیر
لان
ابوالح
آمیز
##زمینه
ایستگاههای
کسبوکار
عهدهدار
جنی
کلسیم
زمانهای
۱۳۸۲
کارلوس
قور
##ئود
نیکو
رایت
سرنشین
##mina
سئول
معص
##جنگ
برترین
ترکان
جاذبههای
دستاوردهای
سازد
شیء
آسیاب
مفسر
برانگیخت
لوز
##واندهٔ
حکیم
گنجانده
سکنه
##OS
لیو
پنیر
##زدایی
##باط
جمال
##ارض
مخاطب
برت
شرکتکنندگان
حزبالله
##rom
آنقدر
سفرهای
کپ
سدیم
سپاهیان
خاستگاه
رهایی
چکسلو
واری
آرایه
روزنامهنگاری
کسر
##یص
بودم
رمانی
مالیاتی
شال
غز
۱۳۸۳
معادلات
هوم
دانمارکی
حاکی
دگرگونی
هوانوردی
رسوم
مصاحبهای
کوری
آنتن
##ولینی
چهارشنبه
آج
چشمگیر
توقی
قفل
یورک
نقاشان
##انها
کلام
نرمافزارهای
بزند
زنبور
Mo
تولیدکنندگان
وقف
اصیل
مزمن
لژیون
ماداگاسکار
Gmina
##وردهای
گرافیکی
بتا
پله
تنفسی
بیانگر
۱۷۳
چکسلواکی
##مونی
سانسور
حشره
حسب
تطبیق
accessed
خواهرخواندهٔ
کووید
ماف
##میمی
لیتوانی
غزل
قاعده
تنیسباز
کاف
گس
##بودی
منوچ
ساموئل
محر
نمیدان
مخفیانه
معش
##ond
روزنامهنگاران
ناظر
۱۰۵
##وتای
۱۵۰۰
##ys
##فاعی
راج
لنگ
۱۲۳
دیدنی
مرتفع
چارلی
کاشان
نوش
تصفیه
ورد
فتحعلی
ممتاز
پارلمانی
تورین
##ائیل
اتفاقات
آشتی
شیل
##بق
گد
فراموش
بشری
##ata
مربیان
موشکهای
۰۷
کریستی
بهوجود
میهن
مخصوصاً
پارامتر
خاتمه
کنستانتین
آلاباما
Re
مخفف
##زین
انحصاری
رایش
##ینگز
##طیلی
الک
##au
کشش
بلغاری
ناموفق
خوشه
احمدی
ایستاده
an
پرنس
ماهوار
اسپورت
اسکند
زار
ژنو
##ردام
ماشینهای
اسباب
آبادان
##ron
##دال
هارد
خودرویی
سیلیک
##حاق
##دهندگان
تانگ
یافتهاند
اتریشی
22
آنهایی
مابین
شکوه
مطلب
پاشا
اظهارات
منوچهر
تلسکوپ
درواز
##ust
آدامز
sec
##ظره
ماندند
De
فات
فلو
فروخت
شوش
##ru
تجویز
##۲۲
شوگونسالاری
بوند
میزد
یادداشتها
واضح
مخابرات
مهٔ
پایینی
منظر
سازمانها
مولکولهای
معشوق
##استیشن
باختری
تداخ
عقاب
##۱۱
کاظم
بمبئی
ناسا
مقالههای
لک
##ونو
##نها
##ck
روشها
۱۸۹۰
اشکانی
اراده
اشرف
##ale
سنجش
پراگ
ظریف
##یسازی
ختم
یی
بالاخره
ظهر
میبخش
اوری
##ازهٔ
دوام
امامی
۱۹۰۷
خلع
حصار
حالتی
۰۸
پروژهٔ
مارول
رفتهاست
باردار
بالگرد
۱۵۵
نین
##المع
فیلادل
معیارهای
##النهر
ناچار
راف
علمای
گه
بازیافت
رسانی
ناشناس
ضمیم
محفظ
شوالیه
۰۶
مانگا
شیرینی
وزارتخانه
شانگ
صوفی
اذیت
قرقیزستان
تاس
##زامی
پلیاستیشن
آشوری
نظریههای
کانزاس
حدس
##نع
دستهٔ
ترانهپردازان
عروسک
IP
خسارت
شنیده
ذات
##ِت
جنبشهای
اعلامیه
روزنامهٔ
##انیت
گواهین
ژو
باشیم
سنتهای
##ass
۱۱۵
رسانده
تازگی
سس
تنسی
نزدیکترین
کریسمس
##قهر
باربار
تعبیر
واجد
مریخ
کریستوفر
فرمانروای
الهیات
##فشانی
توهین
میزنند
۱۹۰۴
رادار
ردیابی
نهنگ
قانونگذاری
مراجع
پیشرفتهای
##غد
##تیکی
نسخهای
موتوری
##09
خرمآباد
##ثری
##روب
##ina
طراحان
ناگهان
Ad
Be
مکات
نشانهای
آیات
##اهدان
##ندرانی
مهره
قارهای
##ana
صفحهٔ
بیاورد
۱۱۸
جماعت
دوپ
ماهیگیری
الب
##صول
بانوی
ذاتی
##حد
رادیکال
۱۵۸
بیانیهای
زهرا
بلوار
آیز
کشم
تحلیلی
مختلط
مغلوب
تخصیص
ورماخت
هوس
شورشی
تفلیس
ماکس
##سیسی
اسکان
رقابتی
##تاکی
مریلند
هفده
آمادگی
##وشو
مازندرانی
ابه
۱۱۹
رشتهکوه
پند
خانهها
ایالتهای
معده
##pp
##آش
عمران
##ِه
حکمت
اسکیت
داگلاس
##یران
سکههای
دانشکدهٔ
مشکوک
##ودن
مدلسازی
##ace
راهپیمایی
عباد
تماشاگران
be
عازم
قلع
##شکر
برگهای
آتشفشان
قواعد
کج
فرشته
تالاب
##شوی
پناهندگان
##بانه
رویال
هیچکس
پناهگاه
درهم
پیوندهای
##وسازی
شهاب
بهرهگیری
##انشهر
جولی
پاداش
##ویتسه
توقیف
مرکزیت
##لههای
شواهدی
پترزبورگ
ch
##ِم
گردشگران
##لاغ
توربین
فاشی
بهشتی
پلاک
کمیک
پروان
بولیوی
حسی
##لال
اجسام
ناتوانی
##ارب
هیچک
سختافزار
اپرای
گرمای
مشکلاتی
صریح
##اوات
تکواند
ناتو
پاره
##دامی
ژنتیک
ویسکانسین
##زیا
اسلواکی
عامی
##ولتی
دوستانش
ضرورت
تمدید
مغولستان
##قاسم
ماندگار
مادرب
گمشده
مارکس
مضمون
اختیارات
دستمزد
درای
منق
##ُل
##سانند
ود
اضطراب
##پذیرفت
##محمد
طرفی
روستاها
ارجاع
قشر
هت
مقیم
سعدی
گذراندن
موان
زیرین
شنیدن
کروموز
##گروه
ابوالحسن
آموزان
##رال
پوشاک
شاخهای
ذره
مییابند
اضطراری
کاد
##لئ
کاربردها
بلاروس
فیلادلفیا
یوهان
مطالعهٔ
##کنندههای
جزیرهٔ
##توس
##يم
تحقیر
اتلتیکو
۱۶۵
سمنان
لنز
عفو
رمضان
ناخالص
دانشآموزان
۱۰۷
افلاط
##آنج
غیرفعال
عشایر
سمفونی
کبد
گویا
بروند
دهندگان
۱۹۰۹
افسانهای
حریم
زبانشناسی
آتشبس
##وتیک
DNA
##ازد
##IS
Bo
غم
مردگان
لوسی
سلولها
اینستاگر
۱۳۸۱
متاکری
۱۵۶
نبردهای
دستان
قتلعام
الس
پنالتی
موفقیتآمیز
پیراهن
بادام
عموی
برآمد
تراز
اوگ
ارگانی
نشسته
متناوب
بیروت
موشکی
##وریس
فراگیر
گراند
بالاتری
پاتریک
گرفتار
الحاق
Int
میگفتند
سائو
##رایی
##روک
نواختن
##اسه
##وبا
۱۱۷
نمودهاست
میریزد
کامرون
New
زیم
مقرر
دیرین
پارت
بیاید
برجستهٔ
آتشفشانی
خیابانهای
ترنس
##پرس
گسل
منشی
کوشش
استری
تابلو
بازماندگان
ظروف
برعکس
۱۶۸
##همان
کنتاکی
جوشکاری
دهکده
صخر
مستم
گابری
بخشید
##اسیم
##جانبه
##فار
بزرگداشت
##برا
##ِس
اماکن
دنیل
۱۰۴
گرایی
خواهیم
آپارتمان
لیز
پادگان
اعطای
بازپس
خانهای
##َد
##پورت
فریاد
##ساب
سفال
بررسیهای
مبدأ
میدید
عاطفی
اهر
بکش
##مری
##ایشی
ارواح
دانشنامه
##AS
خطای
شوک
##iel
##12
داراییهای
الکترومغن
سربازی
۱۶۹
سکته
گذاشتند
۱۹۰۶
فلا
نقدی
##عال
##گردی
##اگوئه
ارمغان
حید
حماسی
یوتیوب
میلر
گفتهاست
میدانهای
مسلم
سوسیال
خاتمی
##ain
آنتون
گرمایی
نوبت
نگرش
کلار
دکترا
رویدادها
ببر
کیسه
چهارصد
مانکنهای
مراقبتهای
##بعی
##ستین
۱۶۷
منهتن
خودروسازی
باورهای
تزی
۱۱۴
##شب
منفرد
مظفر
اکر
پدی
استوارت
##ولای
کرانه
شناسی
۱۳۵۹
##ورس
تنفس
افراطی
دوبل
نمادی
شمارش
بانکداری
سامورایی
ساختمانها
علف
باغهای
گویشهای
سیگار
ورزشهای
الگوریتمهای
طع
مسلط
توافقنامه
بکر
سادات
صخره
آمازون
هجده
بریتانیای
۹۰۰
حضرت
##نما
عمدهای
وط
آلیس
سیمون
موضعی
24
کارها
نگاشت
فضل
تاد
همیل
کارشناس
موسسات
طاهر
رنگین
کوپ
بسط
##۲۳
##ET
##خدا
بروکس
امیلی
##یکو
نیتروژن
میکش
فیلمسازی
##ربندی
آنالیز
##وتس
بدو
##راه
##ترال
انترتینمنت
درب
شکارچی
سینگ
محبوبترین
پش
##فیف
گشتاور
زاک
استفادهٔ
##۲۷
میمون
مبه
نامن
مقص
کیوتو
دیت
مالت
هیم
##شانی
رایجترین
##صب
روایتی
متنوعی
میتوانیم
التهاب
##بوتی
حکایت
دیاکسید
همایون
سهبعدی
##سانان
موب
دروازهبان
روئینگ
فرآیندهای
##رها
سازوکار
نقشآفرینی
آسمانی
23
##جینی
##یلن
##79
##طالب
کارزار
کارخانهٔ
بیچ
۱۴۹
آرسنال
میخو
تصاحب
فریدری
بدهند
کلرادو
۳۰۰۰
مربوطه
شتر
متاکریتیک
منشور
پکن
۱۰۳
##وفسکی
##ost
قابلیتهای
نخستوزیری
##بست
امتن
میشدهاست
انتز
مینمایند
کارلو
تقاطع
دولتها
پهنای
غیرممکن
ادرار
ویولن
نشین
۱۳۷۹
ضربات
۱۳۷۶
طرحی
امتناع
سارد
##ماری
هندبال
چنانچه
##مور
اصابت
آوردهاست
##ide
##de
int
ماموریت
ویله
فان
##ویر
##کوت
موهای
##وزیت
قلمر
۱۶۳
اعتراضی
شرکتی
##کوور
جایز
##lic
دهقان
آیووا
هاست
ترکمنستان
صحت
حلال
پوستی
کابین
##رغ
##پان
مشاهدات
یکنواخت
فوتسال
درختی
لیل
دانههای
کانتی
حفره
بهاء
باک
##راع
خشمگین
##ولهای
آرن
۱۶۴
##ینسکی
انز
ولیعهد
ref
##اقض
نمادهای
چراکه
##کلا
بهخصوص
اری
تفت
کمونیستی
##گلی
رابطهای
لاز
چارت
بهم
داروها
عبارتاند
رازی
پیاپی
تدا
آفرینش
انتاریو
کوپر
ناپذیر
بهشدت
زاهدان
##واس
##co
دیک
کرونا
فریدریش
مهد
فرانچ
هیچکدام
دند
میامی
فرهنگهای
عرفان
##omen
آزمایشگاهی
تسلیحات
چل
مستح
##ونتی
مبادله
نروژی
تکمیلی
شست
جعفری
دیواری
حزبی
شوم
##قرض
۱۳۷۸
مارکسی
##۲۱
متعهد
کلن
میزوری
##fo
گردهم
فه
چشمان
میتوانید
کارن
متأسف
مستعمره
تُ
رانده
پروتستان
##پایی
##ai
##سیستم
خوانندگی
گرام
مردانه
فقدان
مقامهای
21
##وگو
منقرض
##amp
##لیتی
بستهبندی
##ude
منصب
توضیحات
رباط
جادویی
کیا
سیف
Con
ربی
##جاری
راسل
نوتر
##ory
محدودی
فضانورد
محکومیت
اینستاگرام
فرمت
هاوایی
سلیمانی
لاین
30
##یف
سازندگان
##آید
معمایی
۱۳۷۵
میخواهند
##MA
فرخ
##السلطنه
کلود
لیون
بیماریها
لیتر
##ier
تشریح
سلجوقیان
لاری
ونکوور
گورد
پیکس
دستکم
ساختند
۱۹۰۳
##خور
پیشه
##ille
برهنه
##اغ
راکت
قرص
##ork
##hem
##ذه
##پات
سوگند
شیشهای
##uth
امتحان
زودتر
ویدیویی
کبو
##نایی
واپسین
پخته
##اگو
Ro
آوری
ترمیم
دهستانی
۳۵۰
کشاورز
دیوانه
کفش
##وزا
ویلا
فخر
چلسی
Jo
##ندو
##وانند
##ارید
معلمان
دهمین
##مرغ
دلخواه
نیمهٔ
D8
گالی
##ندگانی
گوست
هاک
بیولوژیکی
مارکو
بیدار
مادربزرگ
راوی
##فول
##شنال
افتتاحیه
##وسان
تحمیل
بازمانده
۱۰۸
دوت
##ستقیم
دستکاری
پهپ
سوزان
اکوادور
Ph
بهت
##زیستی
۱۰۶
طوایف
قید
اعتی
برزی
پیاز
پرجمعیت
تزار
پلا
رویه
مقدونیه
تخته
پرهیز
##آمیزی
##طنیه
##امان
معدود
is
##ial
عرص
پنجشنبه
عاملی
##ودبلی
کیفری
قسطن
کولی
آمدهاند
##قا
اصطلاحی
ترشح
##هزار
بازمی
همانجا
##اشند
##ish
##ورم
باقر
##اپی
حائ
جوهر
##olog
مناز
صدام
۱۵۴
سامی
##قانی
##َّ
##عون
##ونیست
دستهای
لنگر
نامناسب
##ندههای
سیک
کریمی
آزادیبخش
ترانهسرا
آستین
نئو
نوبه
Car
##۲۶
##اریه
پایههای
۱۳۴۰
##تشده
تیمها
میتر
##سیسکو
##وجهی
##ماس
میسازند
آنهاست
برخاست
تازهای
##RI
نعمت
ریزش
ناخو
Canton
اپرات
جواه
کمر
انتقادات
یهودیت
ایسلند
ایرج
رئیسجمهوری
##واک
امّا
##میده
##orn
ماهر
سیلندر
عکسهای
تواناییهای
بسازد
چس
##وات
کرن
سرزمینی
##اندرا
جانوری
مرج
قسطنطنیه
غریب
##اهیمی
جلوه
۱۳۶۸
پتروشیمی
AC
##امههای
کارائی
##ica
رکود
اسحاق
هرم
##گذشت
جرمی
##فروش
موزهٔ
##۲۸
عضلانی
انگلیسیها
دبلیودبلی
##کنش
عقد
اسلوونی
ریختهگری
##وشیما
بازرگانان
ضای
مهمانی
تلخ
##ونتوس
صربی
##ئید
##اکم
مقت
عبارتی
##افته
کنیا
##ode
پیکربندی
دیجیتالی
بازه
##able
یوروویژن
##یشه
ماریو
حاد
دقیقی
ارتقای
صلیبیون
گوم
دهید
##گوین
جریانهای
pr
##وتوپ
فنلاندی
راجع
دهیم
یافتههای
شکلهای
موبایل
اسرار
کویر
قمر
هریس
##گرها
فوقانی
دفاتر
نامدار
ممتنع
جاک
مفت
##وبو
کنسرو
گزیده
آستان
##ts
شجاعت
غافل
میانداز
جادهای
شارژ
##الیستی
فرانسیسکو
پورنوگرافی
نقرهای
۱۶۶
##جت
سواری
یونیورسال
le
تداوم
باورند
برداشتن
شیمیدان
He
دشتی
سائ
##سبورگ
تلفنی
شبهنظامی
##غیب
کیلو
۱۵۳
یادآور
##فرانسیسکو
5px
زوال
بابک
شهروندی
عظیمی
##فیل
بازجویی
##اسیا
تصنیف
اي
احض
پرستاری
اندروید
پیشگامان
آرتس
گریز
جسی
##کزی
غیرمستقیم
تدریجی
داب
##نوی
##پرو
بهمع
مواجهه
یهودیتبار
ابوالقاسم
##تباری
کنگو
داماد
مسلحانه
نازیها
داین
پرفروش
##شهٔ
مسئلهٔ
متغیرهای
جشنوارهٔ
ساختهٔ
مصرفی
تشریف
نوزادان
دونده
آدولف
گردو
زاگرس
قریب
شعله
پنت
توییتر
سکس
چوپ
##انتیک
سرمایهداری
متأسفانه
پایانیا
Me
بانو
ستی
##ذیب
اجزا
ریال
نوشتار
۱۸۸۰
دونگ
##ence
نمودن
واژههای
۱۹۰۱
رونالد
اقتباسی
اتر
آئین
آلاسکا
صداپیشه
##۲۹
رینگ
سرل
##lin
شگفتانگیز
غلات
##موث
گردیدهاست
زباله
##زادی
راضی
فیلمنامههای
لهجه
درصدی
معنایی
ماسه
چالشهای
##لها
تنک
هیچگونه
بستن
##انزاس
خوارزم
متکی
وصیت
27
##ED
##یتری
##وهی
سانفرانسیسکو
تاریخنگار
معاملات
ابهام
لاپ
پارامترهای
خستگی
محوری
دیوی
عمد
غو
والد
پلاستیکی
##سونگ
بروجرد
همیلتون
خلاص
نساجی
تعویق
۱۹۰۲
هرکدام
26
پرین
طناب
لیند
##حمد
تیغ
۱۳۷۷
بخارا
گان
۱۳۵۶
##دای
##رافت
دیابت
موانع
ریل
هخامنشیان
##ma
##ظف
##ورث
تجسم
ماجراهای
##چنگ
##بندان
سیاهپوست
اسکاتلندی
رحیم
گوسفند
فردین
استرس
دشمنی
ژیمناست
تحرک
زیان
بهدنبال
##انیک
شانه
قوچ
##old
عبدالع
پوم
##شاخ
##احافظ
##کلن
##بخشی
گئور
ویرجینی
تابعی
##الک
##سپیر
ملاحظ
نمونهٔ
برطرف
نامح
شخصاً
تصمیمات
آسیبهای
##یتسه
شمرده
ریشهٔ
محافظهکار
اصلاً
سرنگون
صفت
متنی
خداحافظ
مناظر
برنامهای
الهه
الش
بهوسیلهٔ
پایانیافته
اگ
ضعی
##سیام
سایتهای
زانو
##ساد
کبوتر
اعتیاد
خلیل
۱۱۳
موی
خف
وند
گشته
##ینال
سوءاستفاده
منج
رمزگذاری
##ark
##PS
باق
##اسد
##اسانی
مدارهای
پسوند
مسافربری
هزینهٔ
سنند
##اگون
۱۳۶۷
مؤسسات
روزنامههای
##لاگ
۱۸۹۶
##لیوس
پذیری
مدافعان
##PA
خالد
نامههای
فارغالتحصیلی
##َک
##انتو
کشتیهایی
انجمنهای
رشتهای
##ID
کتابخانهٔ
فاضلاب
نپال
لارنس
sc
پاتر
خصوصاً
بمبگذاری
عی
لتونی
عملکردی
پاهای
بهرهوری
نقطهای
کاراته
پایگاههای
اجازهٔ
مصادر
یوفا
تذ
ژنوم
##form
میانجی
برزیلی
##اجد
لاله
۱۴۵
بازگرداندن
دروس
مارکوس
میچرخ
حاشی
بهادار
نفرت
آرکانزاس
کارائیب
نبو
گفتهاند
ناقص
he
عینی
فرور
پهلو
بیند
اطلاق
ویژهٔ
نرسید
دریافتکنندگان
پنبه
نابرابری
میپر
۱۸۶۰
نکردند
منحصربه
نرمال
##فیر
امانوئل
تعبیه
الکلی
پنجاب
اتاقهای
خاطره
سحر
چادر
برسند
##ینیان
آمریکاییها
##ash
شبکهای
شایستگی
عملیاتهای
موظف
نخب
یادآوری
تبریزی
۳۶۰
راهبردی
کروموزوم
مسطح
وفات
جودو
راستا
دشواری
ژرمن
اشعه
نگاشته
لوکس
##لیکی
##شتین
##are
پلنگ
صفحهای
بانی
##فتد
##فسکی
##بیک
سیار
فیلسوفان
ضمیمه
##ژان
خواهران
##CC
لیلی
سوئیفت
تلگراف
عاج
خودی
تعمیم
۱۱۶
##سبز
ایدهآل
سرنگونی
##وریو
متحمل
بدترین
##وقت
هنرستان
##زیانا
آزادسازی
ویا
مهمات
آذری
مذاب
مهاجمان
خت
نیکلاس
کارا
جعلی
##مام
##یرز
تایم
حالتهای
end
پیشک
نکات
##ویتس
جاذبه
سوارک
موجودی
پوی
##کوک
کانتون
قلمروی
کنده
اسمی
باروری
##نهام
مزبور
منیزیم
ببرند
لیا
نگاهی
##جیو
##نشینی
اجراهای
##ase
تناسلی
برم
سیبری
رکاب
سازههای
28
ایلی
هفتصد
جاوا
##وریک
ایتالیای
۱۸۹۹
حبیب
مهاجرتکرده
پائولو
هوشی
صاحبان
میمیر
فرانکفورت
sp
سرمای
اصلیترین
سکو
هلس
اوز
ریلی
برادرزاده
لفظ
##me
##ژنی
بلوم
سوق
حلب
گول
موادی
سلمان
استخر
نیافت
تفر
گای
سرگ
محدودهٔ
San
##مث
##ودین
ذوال
##باکس
##to
اوبر
##راش
صفی
ویلهلم
جاه
دوشی
نوزده
انداخته
فولادی
استعفای
غیرع
##خانواده
##هان
احضار
بمانند
جنایات
پروتئینهای
ریزی
۱۳۵۴
۱۸۹۵
ماسک
عضلات
نمیتوانست
۱۳۲۰
وخ
بازده
کمیاب
فرشت
معماران
##ris
آرش
نارسایی
اتصالات
شریعت
خودروها
فرسایش
سنندج
##اهما
محراب
میکر
زید
شهریار
سپاهان
طبقهٔ
منحصربهفرد
مگس
سِ
##وتها
بازگرداند
ارگان
متحدان
بارت
##پیک
شکستگی
درگیریها
زادگاهش
ارتدکس
قاطع
وانگ
روبر
کانت
جف
##ies
##ریسی
نوازندهٔ
سرتیپ
ولف
اندازهای
فزاینده
عده
##اسا
نخبگان
مهران
##ذب
فرزندی
##ساری
سپید
دوستش
اتلتیک
مارگارت
##اتوار
روزها
گیرندههای
کربلا
نثر
مایر
بیسیم
دیفران
نمره
برادوی
##بیری
علنی
۱۸۹۸
مکزیکی
میسیسی
بازگردد
خرگوش
section
قرعه
راگ
عرفانی
##نجانی
ادعاهای
خاوری
##یتز
منسو
اسپارت
محصور
Sa
انتگر
ارسطو
منفجر
شکوف
صحرای
##ere
پشتیبان
لسآنج
سوت
##یناف
##گاهها
آلبر
حسابداری
چاک
آموزههای
مطبوعاتی
مناقشه
##دره
##orld
##مپتون
میسیسیپی
Se
##وگ
##DA
پام
اقدامی
۱۸۹۷
تماشای
##چا
حدوداً
تلاشی
پروندههای
##BC
یوری
میله
نیکی
روانه
تداخل
Tr
کانالهای
نظریات
قوام
گویی
انص
معمولا
تومور
لائ
اتو
محمدحسین
پهلوان
هامبورگ
ویرجینیای
بلخ
##سرو
ادای
آشی
سرای
ارب
اعتباری
ادراک
اکل
ابوب
##ES
##هرانی
بینهایت
اندرسون
ردهٔ
نشانی
سیستمها
فرانکلین
Col
کیو
تشییع
قرائ
##ئا
بریتیش
زیرساختهای
##کارا
شفاهی
دبستان
عامیانه
کجا
آندری
ناخواسته
ربوده
##آبی
حالات
##خورده
بوئینگ
موسولینی
اقبال
ابوم
##آمده
اورگن
ششصد
موقعیتهای
هیجانی
هلن
##ous
انصاری
##erv
بچهها
##ریکس
مؤسسهٔ
شناسان
کوهها
لزوماً
یزدی
##موت
مکتوب
تزئینات
##ER
نصف
معترض
برکناری
یوونتوس
ستارهای
رماننویس
Man
##وسو
۱۳۵۳
##سمی
۱۴۷
##وئن
شرکتکننده
تزئینی
گمرک
نزدیکتر
##گونهای
##زند
##ու
##ریکو
کروم
نشدهاند
لسآنجلس
الر
پربین
##وارا
میلیونها
آیلند
بالی
رالی
بایستی
بذر
##ترن
کالاها
آهنی
##AM
کروی
استفان
Is
pro
تیس
نرسی
##خم
فرگشت
##eng
قومیت
برنارد
##ze
##سیت
مساجد
یونانیان
گله
زنانی
همهپرسی
امتیازات
##اریف
چیست
مورگان
پاست
خاطرنشان
دنیس
نوی
##ար
فوتب
گفتن
تپههای
##ction
##ارویی
سفری
هرود
۱۳۷۲
ریتم
تقل
موفقیتهای
بشریت
کارول
نقشههای
گرمایش
مبهم
نیوم
بته
کیپ
انستیتو
درشت
خدماتی
ایمیل
آشوب
هوشنگ
هاشم
پیشت
جنرال
قطعهٔ
جیک
گواهینامه
سیستمی
صهی
زندگیاش
آلبومی
##خشی
خوک
افزار
بازگشتند
بابلی
سلیم
پستی
##خط
آکادمیک
نبردی
انداختن
صید
۱۳۵۵
رایانههای
مورت
##َی
##ung
##گیت
آنارشی
بینالنهر
سنگینی
المللی
زیتون
نپذیرفت
##TP
ابرقهر
تابعه
کله
آرزو
پروازی
اجداد
مهرداد
##ادری
سپر
شنید
ساقه
ایند
رودری
نشدند
آشپز
هشتصد
چان
##يت
##کنشین
دیسی
##وکل
##شایر
برکلی
##وسه
##وسکی
##پیچی
رودبار
مشورت
بارگذاری
ببیند
##جند
بنفش
جاود
۱۳۶۹
نوازندگی
Com
##کاس
خبرنگاران
کامیون
بوستان
دعا
میبخشد
افلاطون
زع
##lay
ببینید
پربیننده
بریده
کارخانههای
تاکتیک
فشارهای
خیالپردازی
درباری
تیسیام
شکسپیر
سیدی
فک
امارت
معرفت
ملوان
موفقترین
کوزوو
ترانزیست
طولانیترین
women
##اریهای
دپارتمان
سوان
سمر
فواصل
شانگهای
##سیوس
##ادران
اسیدهای
قصه
غلط
پدیدههای
تورنمنت
همدیگر
فرصتی
غبار
Nor
حب
گروههایی
تراشه
Ge
لاستیک
##برن
آورند
متیو
##04
##قام
##تیست
##ari
پوشانده
اسفندی
تاتی
##مینگ
تدارک
تکان
مکن
یال
##قین
##AA
##اسلام
##مدار
سوخته
خند
لاو
لیپ
۱۳۳۲
بنزین
تبل
شرف
لیلا
##نهایت
علاء
چهارمحال
اگز
نوبون
بافتهای
یوتا
کارتر
##سلان
ناامید
مرتکب
متابولی
##وئر
خوشب
هموار
هفتگی
بورک
##گال
میکروسکوپ
لق
قبال
کدهای
مهمتر
تراکتور
۱۸۷۰
غیردولتی
##اکان
قشلاق
##گیرانه
##سالار
خاکستر
تمس
وزنی
##چینی
##صری
##ائیه
۱۳۶۵
جادوگر
زو
مسئولی
کاراکتر
میشناسند
اتمس
تناسب
فلسفهٔ
محمّد
خویشاوند
##قند
52
ژورن
##خون
##نینگ
اشرافی
خراسانی
وری
چتر
لوئیزیانا
بوکسور
نوبوناگا
آتی
سازند
مدیریتی
Per
رسال
احساسی
آهک
##بوت
نوشتاری
۱۳۴۲
##دست
##ثه
الو
بوک
فردا
ناکام
district
نهر
فرگ
پرسی
گلها
بیشینه
مشتمل
ارمنیها
##گای
مشرق
گوهر
تبخیر
ستم
ورا
علامه
بدتر
تایید
التح
بفر
لاه
##رمو
##امتی
##ابا
بلوط
##حسن
نداده
عروق
فراور
نارا
##ملک
فریم
##مدان
قراردادهای
کادر
##وزه
کمیتهٔ
دوبله
عبادت
##غربی
مختر
میبردند
محفظه
وطنهای
سرسخت
##زیو
محرو
سرز
کشتیها
لع
بیکاری
نامع
##شل
نوسازی
##اصد
رویارویی
##ضایتی
افسانههای
مینوشت
چاپی
علاقهٔ
##هایشان
محوط
واگذاری
کریمه
جلوههای
استنلی
دزدی
اشیا
سبزوار
۵۰۰۰
سیکل
##سرخ
مختار
هردو
##ality
پاز
علوی
کاتالیز
##اکت
ملودی
فصلهای
رانندگان
اوستا
رپر
کورد
##ستو
اجلاس
واکنشها
سادهتر
جرایم
تایت
##ادیان
۱۲۰۰
دبلیودبلیوئی
##iti
گشایش
##راند
##ادهایی
بیننده
##خورد
##اریخ
##سیسم
سیمرغ
مونتاژ
زح
پانک
مضامین
پشم
##زیز
کردیم
سیمان
فراه
۱۳۷۳
نحوهٔ
گابریل
##ظور
بودا
##ژیکی
##unic
بگذارند
وول
میاند
راو
پرسید
نامزدهای
ناهم
بهروز
بقعه
##نتس
استعماری
رودی
چغ
##فره
جنازه
هاوس
ابوبکر
##ood
اصغر
مستر
##آف
کانتری
۱۴۸
##idae
##وینی
همکارانش
عزل
۱۳۵۲
کُرد
استادیوم
فروشی
بچ
گیشه
۱۳۴۷
##سرعت
۱۳۳۰
روباه
آرتساخ
مبانی
##آم
اوین
انحصار
جذابیت
مچ
##our
##شمندی
گذران
تحریمهای
بصره
پیشنها
مصرفکننده
مواز
مدول
ترغیب
الکترومغناطیسی
##روزی
الان
مغرب
تبی
زان
قف
گلن
نارضایتی
ناهنج
غنا
ژوزف
##شگی
گرند
نوکل
پاور
درهای
نخستینبار
لینکلن
اژدها
sh
زمانیکه
اسکای
عوام
الکتریک
برهان
##ابک
وقفه
فاتح
##ans
پیری
داستانها
هاي
نویز
##موزی
تعاریف
انسانهای
۱۳۶۲
خانهاش
سیمای
پرکار
##ینیا
کردهبود
نورمن
آلیاژهای
اعلان
خسته
غزن
##تاون
##gh
##AR
فرانسوا
رنگها
قح
مایعات
مرحوم
بگیرید
سوسیالیسم
زرتشتیان
اوباما
##ولههای
AS
##13
##خود
دستگاهها
ذرت
##گشایی
##ینهای
con
جیسون
استکه
محتر
پیشبرد
##وبری
تعطیلی
سامانهٔ
اکثراً
امپری
رنو
امینی
۱۳۴۹
لوئیز
بشکه
نیوتن
تط
نامنظ
۱۳۵۱
تاجگذاری
طولی
قرا
نارنجی
اتومبیلرانی
نشاندهندهٔ
جاناتان
۱۴۶
۱۳۷۱
سراغ
مصادره
عادت
##الام
اینک
سالیانه
گستردهتر
پالس
##MS
۱۸۹۳
##قباض
CP
۴۵۰
کمکم
سبزیجات
آرو
##افسی
Op
مییافت
بوسی
لوکزام
تکواندو
جملهٔ
۱۳۷۴
بشود
مولد
نیام
مانوئل
میلیمتری
هرزگوین
ایو
مرگبار
درآم
##بیده
##ates
رساندند
رضایی
انستیت
علیاک
بشردو
نورت
انقباض
کشورش
##oll
گات
##رفه
استثنای
بندرعباس
شکاری
متراکم
مستلز
##ivers
آتلانتا
بلوری
مجموعاً
حیوانی
پناهنده
کاشانی
ضخیم
درگاه
انشع
نیایش
اجساد
مشتاق
پروازهای
۱۳۴۸
مداری
فرزندانش
سبکی
شوشتر
آسانی
مغازه
اسکاند
گردهمایی
##گردهای
۱۳۰۰
##اطیس
فمینیستی
مستلزم
رشید
عتی
پشته
##الث
فلج
رماننویسان
نداشتن
مشکلی
آزادگان
سوئیسی
تامین
۱۸۰۰
ویدئوی
مسمومیت
آبش
ایزوتوپ
دوقلو
لانه
درحال
##یلت
##ric
۱۸۹۴
دیگو
##بودن
کنسرواتوار
سمپ
فوجی
ژولی
گورک
سیلیکون
مِ
نجفی
۱۸۸۹
##ظری
مونته
مظنون
غیرمع
سفت
آنزی
##16
##73
تکاملی
محلههای
##ناپذیر
معاف
هیس
افق
محتوی
خونین
جنجال
مسن
بازبینی
جریمه
لمس
معاش
معارف
اقماری
قابلتو
##بها
نوح
##مرز
انتزاعی
ستوان
نده
##ستول
حمزه
غیرانت
صوت
قنده
##دشت
سرش
تیرانداز
خالق
هواف
##ann
صدراع
بازگشتی
تشن
یاق
گوجه
بورد
##ُن
##ینده
##وساز
شاخهٔ
سیگنالهای
##بیگ
ماین
##کریت
##رکن
Si
##چک
##ینکی
آمست
##نهار
۱۴۴
ثانی
کافه
ستونهای
اکوسیستم
میساخت
دیوارها
دیرینه
داوطلبانه
##yl
بران
کردها
اندیشههای
دادگاههای
ویدیو
##CP
معابد
افتادن
بقای
گوردون
بفت
هرمان
انتها
پوپ
##پلی
##پزشک
##ینوس
برخوردی
ناراحتی
نایت
##بیان
قلمداد
##جامد
خیابانها
کالبد
##50
معج
تهویه
والدینش
عمود
ناآر
موقعیتی
##کزیکو
بروکلین
شایعات
فلش
##کاوی
تمرینات
گستره
دایی
##وهانس
خانوادهها
اورانیوم
جنگلها
متأثر
پنی
افشا
حضورش
آهسته
Fe
##ایکس
بهبه
گرسنگی
دقیقهای
##تیسم
بَ
میسر
فیلد
فیشر
واد
##ki
فرح
قرارگاه
آموزشهای
محرمانه
تزیین
دستههای
فراگیری
##لود
##AN
ویس
۱۳۶۴
باف
نصی
##DP
##لاوه
مخرب
جوانترین
##unt
ساع
چقدر
عمدهٔ
میدهیم
سکوی
مستحکم
Po
آوار
یادگار
سایبری
دیفرانسیل
حن
شهرسازی
##پروری
فولکل
name
نهصد
پتاسیم
##عید
##ونیسم
ساختگی
کلاین
##اووس
شفافیت
بیات
آمیزش
##وژ
امریک
۱۳۶۱
پنهانی
کسری
نمایشنامهنویس
##باتی
اشباع
عزاد
فستی
##کای
آلات
نمایانگر
استکهلم
معلق
بازنگری
آموزگار
139
علما
ورشک
باکتریها
مستمر
رکن
##خطی
##AT
##مینیسم
۱۰۱
روشنفکران
ساپ
کِ
##زیگ
آیرس
سهمیه
ناام
یخچال
کلیساهای
مخابراتی
گزید
جمجمه
رخداد
بطل
##یروس
جشنوارههای
صوف
چرب
اعتقادات
##زیر
همجنسگرایان
خواهرخواندههای
El
آلای
گریگوری
کامپوزیت
29
##شیو
تخلف
۱۸۹۲
فسفات
قرض
پلان
گوانگ
##کیل
##EE
##وکاست
رفسنجانی
ــ
لاهی
بیح
چیزهای
سوئیچ
هلیکوپ
##غرب
کارهایی
##اشتند
قرارگیری
کوفه
هواشناسی
برنامههایی
۲۲۰
ساکنین
نیومکزیکو
۱۴۳
پنجه
پلاسما
##ماد
باج
آنالوگ
##اویری
تالش
بوز
دانی
##کبوتی
عمویش
مجل
پرور
جنگید
رصدخانه
علیاکبر
میداشت
باشکوه
رودخانههای
پرداختهاست
اجماع
فئود
ملایم
پیوندی
مأمون
۱۳۴۶
مختصر
خلاقیت
حات
کاج
##ولوس
نقوش
##ینگهام
##اکیه
MI
کپس
محلهای
صحرا
جوزپه
باربارا
شونده
مافی
##yst
منظوم
طلو
##أت
تعدیل
خشکسالی
اسکندریه
##لافی
##افعی
بلوز
##oph
مکانیزم
پیامهای
wh
شهرکی
فنون
نیزه
مشخصه
غلامحسین
کامبو
هاوارد
کید
##شویی
مجر
##ومتری
موجودیت
نایبال
دخیل
آبزی
خیزش
حواری
شاپ
فرانتس
خوردند
خداحافظی
ex
بالکان
نادرشاه
کمونیسم
Min
قلعهٔ
پُ
کاسی
مرسد
مسابقهای
ساختهشده
مادهای
هارون
بهدستآورد
واکر
جانداران
چانگ
زیرخانواده
##گردانی
##eth
اکلاهما
آمستردام
##خال
مادران
واگن
۱۴۰۴
##ake
میرفتند
ژرفای
شیلا
سنگها
غواص
سکولار
هرودوت
لئو
نفی
##اسل
##وشیمی
رومانیایی
اتحادیهٔ
CD
##نیت
ترمین
یابند
داراست
جنگجویان
تصاویری
دراماتیک
شاهدخت
خرابی
لولههای
##ów
سرشار
شرطی
##چهها
لگ
رسوایی
بلژیکی
میکشند
بتهوون
مصرفکنندگان
غیرنظامیان
##زرسانی
##تنها
پیادهروی
##آلات
تصریح
سامسونگ
بخشها
فارست
نصرت
##الز
اتمهای
##ومری
روحیه
مغولان
خاکسپاریها
بهبودی
معینی
##ارتز
تجربهٔ
آلا
مصاف
صفات
دایمی
ماکرو
دانشی
بارون
گلزنی
اردوی
ماهیان
استرو
سعادت
درویش
کتابخانههای
تفریح
##شور
آوردهاند
دزفول
اسماعیلی
US
طاه
ترقی
محلهٔ
مادام
تفنگداران
غیرانتفاعی
Ab
گرانش
فرانچسکو
Ne
##20
##کرات
##ائلی
##هل
الج
اشترا
فرانکو
شدم
مراسمی
باختر
تیک
##تشان
ساختِ
جولیا
##ram
##پنها
بینالنهرین
انستیتوی
##مک
میخائیل
انتگرال
گوید
تهی
تیوی
یگانهای
جواهرات
پیکان
داروسازی
پوشیدن
تالی
##یرانی
پاپی
ادیب
ایدز
هولوکاست
استحکامات
هلسینکی
گوزن
##چیل
##البی
سیاوش
وَ
درگرفت
##کلند
##سازان
۱۸۸۸
تکراری
جعبهد
##بیوتیک
ارام
تطبیقی
بیضایی
هریک
وکالت
قرهباغ
رافائل
نامنظم
تین
صبا
لاش
میانهٔ
سرویسهای
غری
آلکس
بازوی
تئودور
##ایشان
مخازن
بپردازند
##هنگرو
##یدها
دینامو
ضایعات
ارائهٔ
برجستهای
##دریج
مونتهنگرو
ستارهٔ
جابجا
##iss
##آگاه
باهم
انار
سومالی
کالای
تلاشها
عنکب
##ull
##2O
هنرمندانی
اطلاعرسانی
فستیوال
ین
وسیلهای
بازگردانده
سویی
برنت
##اکر
AP
اطاعت
حیث
خسارات
جبل
فوران
عنکبوتی
نجومی
همجنسگرا
صراحت
یوزف
جیل
پاناما
متیل
سیسی
پرتره
تنه
پارال
گیگ
کالین
نصیر
فراخوانی
پیامی
دستوری
تنب
Comp
جابهجایی
عطر
##اندند
مشرف
هوک
استثنا
عار
محافل
دیه
تکذیب
لورن
آرزوی
تیرماه
یوتیسی
رند
سالار
پروست
محلات
##سلطان
سانحه
رُ
##تیان
مارسی
مقاطع
تلو
##هال
##پتون
##سیکل
##دارنده
گفتگوی
آیتالله
ماوراء
قشق
انزلی
توهم
بیژن
قرضی
##وستون
۲۵۰۰
##پلو
دارنده
بیکر
##تقی
متض
موسیقایی
معاویه
دلیلی
منگ
روب
۱۳۴۱
خوشنویسی
##اترا
فرعون
##rid
همسران
قاجاریه
se
جاهای
حباب
شون
فلی
##تبی
##ola
196
سالیان
##راتی
##نمای
1999
حتم
کانو
##حم
کوپا
هیلز
غشای
بالد
۱۸۸۵
پترو
خاتون
کلمهٔ
شوی
##امیان
پرستار
فرایندی
##ولها
بانکهای
تکلم
عذر
نبودن
کارآگاه
برا
سویا
بورن
دامنههای
دایرهای
Reg
نوت
گانگ
##رة
##مانت
میکشید
تأثیری
##ئوم
##ردانی
##غیان
سیستماتیک
نمایی
ویروسی
##شرقی
آگهی
کَ
##خوش
استوایی
##بازان
سرگرم
استبد
ناراحت
صحنهٔ
میاندازد
##unicip
##ax
زیبات
شاهزادگان
عبارات
سریعترین
پون
##انسی
گرای
مولوی
کلینتون
عس
هانی
##چای
اسکو
ویرانی
##ley
خواستههای
پیچیدهتر
فمینیسم
##تیکت
زیگ
نیرومند
چرخشی
مرسدس
##نوس
نتیجهگیری
کومار
##iew
راگبی
دلایلی
تورات
##اهند
یکسانی
سیام
تریلر
لوکاس
تامیلی
پرز
حماسه
هائ
۲۴۰
همجنسگرایی
کاغذی
فروشنده
قندهار
داش
##ریو
سرسبز
شارلوت
##ota
بحثهای
اسکناس
کیفی
can
##کست
مرمر
ملخ
قیمتی
جهر
نکنند
چندگانه
ناساز
اسیدی
##ونته
کازرون
عزت
##ype
۰۱
##تیا
محمدتقی
دزدان
فرصتهای
شکوفایی
میزی
۱۳۶۶
لایت
لرز
##اکورا
مغذی
روشنی
چنگیز
بارانی
اقامتگاه
دگرگون
امامت
بیگان
اردوگاههای
تهرانی
##19
ریشهشناسی
بیمارستانی
سالو
اجبار
دماهای
ارقام
راهکار
روزنامهها
امضاء
ماهوارهای
صغیر
متمایل
میمانند
اشارهای
آبوه
جواهر
اینترن
میخوانند
صدراعظم
##ors
جنبشی
##قول
##هری
بانکها
##امز
گیج
لوکزامبورگ
PC
شاهن
۱۸۶۳
رحمت
غیبت
وکل
پروتون
شاهکار
قرنها
رسد
##کوفسکی
فراخوان
میفرستد
گریه
مشهود
فیزیولوژی
زیباترین
یگانه
مایلی
بنیادین
##ult
بایگانی
مخروطی
ممل
##ya
ایراد
ریور
مورو
دشتهای
گرده
دستاورد
سوک
##act
آریایی
جبری
##تایی
##IC
اینطور
بیبی
آیینهای
ناحیهای
##طلوب
web
تبت
دزد
##اهب
الص
##فیقی
احوال
المپی
یازدهمین
اتمسفر
توح
آماتور
ایدهٔ
##clude
متی
یتیم
##کبیر
سرگذشت
تلم
اهدای
only
IC
##موس
روغ
آشفتگی
ساواک
di
##son
##یناوی
میاف
بروم
##lass
مشروعیت
قحطی
فاین
کارفر
حرفهٔ
شعرهای
بیفتد
شیطانی
##نزو
##جامین
۱۸۸۶
غروب
جنیفر
بهانه
لرزه
لودویگ
عبدالعزیز
دیتر
قوت
وایل
##گاران
##انول
گراهام
اشن
##وبین
##پرست
تایپ
بهمنظور
بطلمی
لال
هانا
مجد
نصفال
منعقد
##طار
تامپ
کارتهای
پیچی
نما
ترمز
جهنم
نهادی
کوتاهتر
تاکسی
گاردین
##یایی
##گوس
مسلس
انعطافپذیری
صور
جهانگیر
##چف
##جههای
##راط
خرج
لاکپشت
غض
پابر
##ازو
##گیرنده
هیدروک
آسانتر
##آغ
پرون
ارامنه
شدهای
مصارف
مستعد
صفویان
دخترانه
۱۳۶۳
آمیخته
غلامرضا
طلوع
##AD
##یدو
دوکنشین
۱۸۶۱
داکوتای
فرانسویها
پسین
میخواستند
ریموند
اوساکا
اقیانوسیه
دق
صدی
کبود
##ress
##ِک
##55
صحرایی
بهرهمند
بگوید
کاندیدای
Cl
##ریفی
پژو
##طبیعی
Ex
تایر
غدد
نامطلوب
گرایشهای
##انند
مشاوران
سانسکریت
بخواه
حص
##خواری
##ament
شوخی
فیلمبردار
مهربان
لایهٔ
##خالی
##اسوی
مقاصد
##انوف
جنگافزار
کتابهایی
برجای
بیضی
تقارن
عبدالرحمن
دیکتاتوری
آسایش
رودخانهای
نجوم
وظیفهٔ
ارتع
منظومه
فزایندهای
اسکاندیناوی
do
##ناکی
گیتاری
عمیقی
نوا
قدردانی
Qu
مجلسی
فلفل
معط
مجرد
توانند
##راز
احسان
بمباف
نتوانستند
یاقوت
کرهٔ
مغولی
##ick
محرومیت
کشمیر
خواستند
##اگاوا
متحدهٔ
شاهرخ
پوششی
صداهای
ابیطالب
جفر
##لک
##سری
کلانشهر
دلفین
فیلی
قدری
عواملی
۱۸۸۷
هیوستون
Fran
خراج
وصف
##راغ
شکو
زئوس
محبت
##اطبی
بردگان
##ional
بهاءالله
صمیمی
فصول
##رع
کلرید
احتیاط
ir
##اول
بوداپ
سردهٔ
شهرستانی
کوتوله
۱۸۹۱
۱۳۴۵
کوئینز
##ادان
##اسون
بخشیدن
مصور
##ect
##ینسون
یکصد
شدگان
اوه
گلف
عدسی
اذعان
واندر
آلتای
تلفیق
فیض
##وینت
##گارد
بنجامین
شکارچیان
##وازی
گوگرد
فرستنده
##راد
خدایی
انتقالی
نمونهها
ستارههای
انوش
بیوه
کنتیکت
بالتیک
بنگال
وبر
برپایی
مستوفی
منحرف
ناآرامی
لکه
کارنامهٔ
هربرت
واحدی
میکنید
گاس
مجریان
اکتشافی
حامد
##امات
پاراگوئه
مشترکی
عمرش
مصوبه
سوب
درم
خشونتآمیز
تجم
۱۳۳۶
##فورم
دستورالعملهای
##ونیت
هیو
روانشناس
ابوالف
بخواهد
ملزم
نگهبانان
میگردید
شاهنشاه
بوداپست
##OR
##مانهای
ایهی
بعدتر
بازگشایی
۰۲
بازنویسی
پیشزمینه
گرانشی
نشانهٔ
ولت
آشکارا
بهائیان
چاقو
بازگو
رسانید
۲۳۰
Bar
حلقههای
تبیین
اویل
زل
##گهای
رودهای
لوکی
تماشاگر
Gu
##زود
بنگاه
نفرین
یوشی
بروکسل
ar
جود
خشت
ماهانه
هاگ
تیغه
Sch
دانلود
شرم
اشتیا
جمهوریخواهان
گوستاو
بامداد
موتورسیکل
قصبه
ذی
میث
##اهنگ
##گذر
کلیسایی
آزادانه
دنیاگیری
خبرگان
پرخ
تاریخنگاران
۱۰۲
مخترع
نشت
##ضر
حکاکی
همسایگان
Ag
بچههای
شهوانی
وحید
بوندسلی
##unicipality
##ano
ماب
مجتبی
حقایق
گسسته
سرلشکر
انشعاب
##پهای
دانستند
##لاع
دوبار
پرود
تیمش
رودخانهٔ
درآورده
2000
گزینش
نکن
##باف
##طیر
##غت
مکال
بلورین
##وردها
##ملهای
سهشنبه
الهامبخش
##اتری
آلم
جفری
##IR
بیزان
دهخدا
مشکی
مبارک
عرضی
صداپیشگی
##org
کتابش
بحثبرانگیز
یوز
اقداماتی
مضر
ضلعی
ایمی
##BS
ساعته
دنبالهدار
مروارید
##روه
##وتون
دانستن
کتیبههای
نصفالنهار
هین
##ودار
پایاننامه
انفجاری
بیث
حفاظتشده
انطاکیه
##عودی
##TS
احادی
عفونی
دوربینهای
Univers
##گاد
فراطبی
مهرماه
خردسال
مونرو
الخ
آهنگی
۱۸۶۸
چیزهایی
درخشش
##نیها
تجلیل
##پسند
پائین
شیوهای
صنفی
مولانا
SS
مرخص
اندامهای
سرداران
همیشگی
دندانهای
ارضی
##انکار
لنف
فایلهای
##14
عمدی
تسمیه
ماشینی
قدیمیتر
فولکلور
حمد
##گول
بیرم
تیرهٔ
هستهٔ
table
رودخانهها
اتوماتیک
مستعمرات
غیرمعمول
جاش
رت
##uri
##آکتور
##vin
##لیز
##ویسان
مجته
پیشانی
تکآهنگی
new
##زنان
##ater
لوپز
کامپایلر
داروین
بحر
بریستول
##طلبی
تطابق
##ترز
Ac
لستر
درجات
هوگو
صدایی
دائرة
شریعتی
اپراتور
##دهاند
##ریع
هیون
امیرکبیر
۱۸۸۲
1998
فردیناند
خفاش
یکای
آتلانتیک
##شمی
ادوار
##لوف
ترکها
نمایشنامههای
پارالمپیک
##ظران
خازن
شیک
بهس
ویک
مجرای
شرعی
جامائ
جشنهای
فیسبوک
##بز
##جله
##يه
ملکی
خداب
بولونیا
چیره
استنفورد
AD
##کریم
##ارین
اسات
حفاظتی
##قدس
دوشیزه
##OC
##خوانده
۱۸۵۰
مصادف
سینماهای
غیرعادی
نینت
دوگان
##ابقه
پنجر
ناتوان
قضائیه
عروقی
نامعلوم
And
32
Wh
##لیون
آزمایشها
کبدی
##hn
بوئن
ژاپنیها
متوفی
سیرجان
##uck
دامنهٔ
ژرژ
تنکابن
بفتا
گراد
هلال
تنظیمات
مفر
##ابون
ریوی
پذیرایی
پاسخگویی
آتشن
میکروبی
ظلم
واسی
دربند
تخل
Air
##sky
نوادا
ریگان
اندوه
اودا
فراطبیعی
##aj
رخد
موتورز
۱۸۶۷
رقصنده
ایهیاسو
کشنده
غیرمنت
رئیسی
مناظره
لیتری
سومی
نُ
##یاف
##ارهها
##include
##پرت
##les
##الان
##وموتی
بوکان
نوشتهاند
۱۸۸۴
جسمانی
طایف
فام
کرای
تربت
نیرویی
##پلکس
##ولون
##وزین
حسگر
اسکادران
درسال
الغ
جنگها
نسلهای
کاملی
دقیقتر
رؤیا
گارسیا
##تبار
کاپور
۱۳۳۷
بستههای
جویی
گاد
پروتئینها
یل
بقا
اثرب
##per
##AP
برسانند
##گره
ارغ
دریچه
محترم
##FC
اهلی
نمایشگر
وزیری
صدف
تیتانیوم
##آنی
همج
کارگزار
آبانبار
کهنترین
مملکت
Gre
جنت
##نجر
##row
آنتیبیوتیک
کارآفرینان
پرنسس
قفسه
میکوش
توانمند
پلیسی
##باشی
نیوک
193
کامبوج
طالب
##پیر
##ازاکی
##وکسی
روانپزشکی
۱۸۷۸
پالایشگاه
چرم
##چون
##ازا
مستطیل
رسوبات
la
لطی
برشی
ادارات
معطوف
Val
تتر
##15
استنت
توربو
تشیع
##ix
##کنیک
اهم
نشستن
واسطهٔ
میجنگ
واج
کامیکس
لون
لاج
##صرف
تغییری
دهندهٔ
جلگه
اوستایی
ني
انتهایی
همهگیری
تابل
جلیل
##گود
آنچ
پیشگویی
بستگان
بورکیناف
موضوعاتی
wid
میپیوندد
بردهداری
زدهاست
ژنهای
##نیس
##بانو
راهب
پوستر
آسیبپذیر
۱۸۴۸
بنده
##غانی
اموی
نمیباشد
۱۳۳۵
لیدی
ونت
اینحال
معاین
مرموز
ارزشی
پداف
هاینریش
##sc
##عمر
زیرنویس
گوتیک
Intern
##ville
میفه
##اریوم
##بیلی
##urg
بازرس
لیگا
سقز
متقارن
##یاری
##mb
##حت
بیو
نظارتی
نازل
قدیس
نرس
##بیای
هیول
سرخرگ
وزر
##رکان
رآکتور
قری
برگها
نمایشگاههای
مذاهب
حقوقدان
استودیوهای
مقدمات
میتس
##کتریک
دهستانهای
روشهایی
ساترا
گمانه
پایهای
کلامی
قیر
ترمو
اقلید
الکترونها
خنده
سیری
##شنی
بادهای
متعارف
دانشآموخته
دات
۴۰۰۰
##کوبی
مدالهای
الزامات
۷۵۰
جدیدتر
نزدیکان
تعیینکننده
احتراق
یزدگرد
فرنچ
##pt
##ِد
##عههای
زوری
غش
فرات
پایانه
تنشهای
ریب
سنگر
شیری
هنگامیکه
نبراسکا
طوسی
امیل
بیگن
مرتبسازی
گریس
قصی
پک
پایش
##ادین
تقابل
سفارشی
اسکری
فارسیزبان
الکترود
۱۸۸۱
قضات
استخوانهای
بتمن
قرائت
التحصیل
##پری
۲۱۰
برجهای
روحانیت
موناکو
##لبرگ
صادقی
ناسیونال
برگردان
زیربن
کشتند
##raph
CH
براف
معناست
##ics
۱۳۲۸
لینک
نمیدهند
بطری
رات
سانگ
سایز
هک
نظامهای
##ations
آراء
del
un
بویی
لج
##َب
##المن
لوکا
بیسبال
آویزان
##وخ
تناقض
بعث
استرالیای
اسلامآباد
باغات
زغالسنگ
صوفیه
آدل
تنبیه
کُر
سحابی
##زمی
##وتین
الز
تهیهٔ
بازگشته
۱۳۴۳
آتشکده
نوکلئ
##انوردی
فعالیتش
رونویسی
ساووی
اشتیاق
وگاس
دیداری
مؤثری
۱۳۲۵
عفونتهای
دوتایی
پلو
بهنظر
آرون
##گوار
کییف
تورینگ
شناختن
نوم
##وراس
داوطلبان
شات
عماد
شنوایی
گفتههای
القاعده
چهرهٔ
گزینههای
##ield
دیز
۱۳۳۹
گنجشک
ژورنال
مینگ
##ولند
مجار
دستگاهی
حواشی
دماوند
انصراف
اشیای
سادهترین
گنجایش
کائ
نوسنگی
افول
مطالعاتی
فرشتگان
قمار
بلاک
طهم
عواقب
۱۸۶۴
همانگونه
نهتنها
همکاریهای
کاردینال
تانز
قفس
بلندمدت
آرنولد
سرزنش
with
تاخت
سینم
نافر
کاسته
دایناس
نینتندو
lang
انض
گزارشهایی
مفصلی
##افتاده
ابزارها
۱۳۴۴
۱۸۷۱
رانش
نقی
استوان
##que
وکلای
لیکن
##وزیسیون
انجیسی
ملبورن
دستورهای
انعق
##جید
فرستادن
پورتو
احتیاج
وون
بهسوی
غیرطبیعی
مدلها
100
منتقدین
ایتالیاییتبار
##کشهای
##وزد
فرمانروایان
بازخلق
36
ساکس
قریه
میپرداختند
جاستین
یوان
دیلی
گرانت
##ink
ابلاغ
۲۶۰
بوئنوس
##oy
جوجه
width
نوید
سوفیا
میخورند
نانومتر
مافیا
السلطنه
زمانبندی
کریستالی
فاسد
مسافرت
بازپسگیری
بینظ
مولر
مجسمههای
انی
بیام
رویان
سفیدپوست
داغستان
اسدالله
نویسی
مسائلی
##الیک
رویکردهای
هیدهی
فروشگاههای
۱۸۸۳
کاروانسرا
همگان
تهم
عبدالحسین
کیهانی
گائ
##۲۰۰
##nes
باغی
واگ
۱۳۲۴
جزیرهای
فوم
ارل
روزاف
هوجو
##نوشته
دیدند
جادههای
برونو
چید
بوگ
ادین
##ush
هزینهها
میبینند
AR
براز
##هید
##المت
ابوس
ناتنی
قالبهای
خودمختاری
مهاباد
گلدان
آلمانیتبار
هفتهٔ
کریگ
مکانها
##مالک
مونتانا
واین
##کوی
##راژ
##وندای
پرم
ابوالفضل
سُ
اساسنامه
ردههای
ایرلاین
آجری
بشردوستانه
معجزه
هاردی
وادی
مجرم
قدرتی
رؤیای
هرکول
Br
گاما
فاطمی
گلوکز
بِ
ساین
مینامیدند
پارامونت
بهمعنای
##ابها
پرتوهای
بیزانسی
ارسلان
##ild
سودمند
ناصری
گسیل
منز
سهامی
آپولو
فریت
اسکر
##ance
اندازههای
لیر
هود
تاپ
۱۱۱
میآمدند
پوتین
مسئولیتهای
##ضاح
جدیدترین
پاسخی
آیینی
تجدیدنظر
HT
زابل
ژاند
##کوم
استخوانی
سرما
افشای
بنایی
قبیلهای
آفرینی
زهره
فونت
##پوری
##ino
##illa
تویوتا
onlyinclude
##وزوم
ورلد
نزول
آیفون
بازدیدکنندگان
راهنما
##یتسا
##اکل
دیدی
پهپاد
##َت
یخبندان
برتون
##خانهها
تاتنهام
پیشی
ترم
ابراهیمی
جیرفت
امداد
تقوی
رومن
تدارکات
عرصهٔ
هوندا
بهرو
ایان
نوارهای
مگاوات
کریکت
##ium
خودگردان
قزل
روایتهای
خوشحال
میمیرد
دغد
##وسنت
آموخته
فشاری
رفی
نلسون
گنگ
بیابانی
کمرنگ
##ical
بیخ
کششی
##ونتو
شدیداً
امتیازی
رومیها
آستارا
بزنند
گیتاریست
بودیسم
##اکتیو
جعل
۱۸۶۵
##لئان
مسایل
دیار
عملکردهای
نارنج
هلیکوپتر
بازخلقشده
کارتون
نامیدند
بعض
مکانهایی
قزوینی
نکر
##ایدر
دربی
حاصلخیز
حجت
ثالث
بیطرف
المن
گوات
۱۳۲۹
طوطی
ویراستار
شریان
والن
۱۸۷۶
نگرفته
##ystem
بلیت
گنو
بلگراد
گلاس
مراقب
علیآباد
چشمههای
لبنی
##خشان
##amb
یونهای
قویتر
کاوشگر
لاهیجان
تگ
اهری
وینسنت
##ستاد
تاجی
دورانی
سابقاً
Ca
نوب
پروپ
جلویی
هارولد
واژهای
اسفندیار
جار
هاس
##ML
استریت
نامهٔ
اسباببازی
چرخهای
ماکسیم
##مثل
West
World
##آوران
فروید
بیعت
کران
نسبیت
میانرود
سکانس
##چگی
##IV
##الار
برک
منطبق
پدرو
ساد
فسیلی
##چل
##فیس
##الیم
##گرفتن
تاکدا
Go
استوک
پرادش
۱۱۲
فراخوانده
کلینیک
عنکبوت
ائ
##ek
خدمتکار
کاروانسرای
نوشیدن
no
بربر
برایشان
##وریکو
##پذیرند
رجال
مسلسل
بقی
##23
اسدی
##NS
بوهم
اعزامی
##جاج
پلیت
تعاملات
مصدومیت
عذرخواهی
قای
##ژانس
براند
هرج
##مهدی
بایدن
پلیمری
##وپایی
سیمین
قوانینی
نگرانیهای
from
ویم
کونی
##ابو
نقشهبرداری
مجسمهسازی
گوس
باطل
اسپی
بیرجند
رجب
رباتیک
هراک
##ختر
معایب
سوالات
سنگال
پارما
آهنگها
عاشقان
خرما
تجدیدپذیر
##باقر
هانت
اسکلت
تحکیم
استانها
زبانشناس
نزاع
قانع
##سالگی
نیروگاههای
۱۸۶۲
۱۸۷۹
زراعی
جابهجا
رابینسون
عود
کپنها
کشتیرانی
ناراضی
##ِـ
اسرای
شاملو
کربنی
پینو
دورتر
سباستین
خیام
شعب
##ublic
هائیتی
50
شوری
##تار
موثر
مردمشناسی
دانشآموختهٔ
نمودهاند
نیوزلند
خلبانان
III
گوارش
لژ
متخل
بخشیده
زوریخ
محو
جهات
ادموند
دالاس
سمرقند
35
CS
##وآمد
##ینهٔ
شاعری
پرداختهاند
۱۸۷۳
قیاس
تاکتیکی
امریکن
شوت
##MP
کارون
۲۷۰
رولینگ
منس
میبند
##اویا
وارن
احادیث
پنگ
##کد
##یرهٔ
##اصری
شمش
194
##عبی
اسپن
سمیر
نبی
##گردند
##مودین
کاتالونیا
شامپ
همخوانی
بزرگتری
قسمتهایی
بختیار
دهقانان
دلی
##غلو
##ارج
کنج
مایه
جهتگیری
میگذراند
or
##باش
جایگاهی
ناپای
کرنش
ضرر
انگشتان
طبقاتی
جلدی
نهاوند
قمی
مومی
بنف
خرمشهر
لوری
مثنوی
##بورو
ناچیز
اختصاری
عباسیان
الدوله
دیویدی
کبی
نشانهها
انجیر
باروک
میدانیم
وبلاگ
خلاء
2013
##بساط
مقصود
Municipality
آرب
دالی
موجی
اختیاری
کمیسر
رقصندگان
همجوار
##نشده
##ورگ
امیری
مجسمهساز
وزنهبردار
مملو
پارکر
طرحها
وضعیتی
حرام
حائز
آریان
روبرتو
تجسمی
حملون
پژوهشها
زدایی
لسوتو
##غرل
آدی
بازخوانی
##وئیه
by
انبساط
##ونیان
میری
پاسکال
حلقوی
نخواهند
دوازدهمین
متناظر
دمایی
هرگاه
توران
سروش
برشم
دوزی
پروتئینی
دماغه
کونکاک
فیروزآباد
تانزانیا
بایت
##II
##Cl
گلخانهای
سپهبد
نداری
##الحی
سرطانی
هوادار
کونکاکاف
چا
##ّل
میجی
##اختند
مصلح
##ائیان
ایرلندیتبار
اثربخشی
40
ret
##za
##ایک
کرمانی
رییس
##ank
تأثیرگذاری
33
##rop
بهگونهای
خواهم
کورن
حتماً
لوید
رأیگیری
##گرام
کشیدند
Cor
فند
نیمکره
وجوه
خاش
هجر
مارپیچ
##ome
عثمانیها
یکپارچگی
مقالهٔ
شبی
موومان
متروپ
سامر
رایگیری
وارده
D9
بپیوندد
خفیف
درهٔ
مأموریتهای
قابلتوجهی
بوندسلیگا
میانمار
آخوند
آرژانتینی
کوئین
طعمه
برین
بارگیری
کانگ
مراغه
مفاد
تعهدات
داس
قطره
مادها
ناوبری
ایلخانی
دولتش
##زور
روبن
داراب
آلبرتو
سگها
زراعت
بودیم
##میس
نمیگیرد
مرحلهای
سانتیاگو
رنه
هـ
##سکین
دکل
دیجی
تسریع
لوکوموتی
فوراً
قشقایی
##َو
##خوس
##اریکا
۱۳۲۷
یابی
##IN
##TA
کارخان
ارتشهای
##تولید
هواپیماها
عضله
عمرانی
بخواند
سهراب
##مم
##۷۰
##روفی
##بیون
مدیا
مراتع
بیرمنگام
حملونقل
##سیمی
دستخوش
##ats
ویژگیهایی
خلأ
دونور
باکتریهای
قلمروهای
فیلیپس
آهنین
ترمینال
مشمول
ماهها
پارسیان
##zy
تسهیلات
تبرئه
##ولز
گلزن
۱۶۰۰
پینک
شایعترین
کونگ
گرامی
مینا
ad
##lu
##اتسو
نیس
ممان
##ُو
ریگ
الیوت
۱۳۳۴
ag
ولو
گرن
پرطرف
تکآهنگهای
نمیداند
سوارهنظام
بئ
##سیری
مدفون
سردبیری
واکنشی
۱۸۷۵
##rans
رجو
ایرانشهر
شرور
مقایس
سخنران
عزاداری
هدر
##قیمت
چالوس
نانوذ
فقهی
ژی
##وشت
ترام
مترادف
بگیریم
سایپا
لورا
ونی
ایک
دلالت
##سلم
درآمدند
رزرو
یهودا
2009
داون
یوس
##زیس
فرآوری
سازندهٔ
خرچنگ
۱۳۳۸
مرورگر
چینگ
گاری
کلیس
ارتشی
صدق
لبنانی
روبروی
مقصر
هیست
##بریا
میلیگرم
مالکان
لالی
انیم
##گانگ
سیاتل
کنندهٔ
ترب
##att
آشفته
درخواستهای
جبههٔ
استثنایی
ضمنی
سوفی
مکل
##مالا
مزایا
قطعاتی
براک
احراز
##enn
بازتابی
ناپایدار
بصورت
راستی
چرک
##۹۰
##یرت
اینرو
سرعتی
انسانشناسی
جنگندههای
##خیم
برفی
سهمی
دومینی
مطهری
آفری
##یتور
زیرگونه
تعمید
پیرس
تئود
تلفنهای
یخچ
تحریمها
ایدئولوژیک
ماژور
زوده
کاماکورا
امپراتریس
سفرنامه
کشتهشدگان
##گورود
سرگی
درامهای
##ros
##ower
۱۸۷۷
پلتفر
##جملهای
۲۰۶
##گرمسیری
ترمودین
تامیل
##پیوندند
کمینه
North
جفرسون
##همپتون
مانور
اطلاعی
کورین
اقیانوسی
یوت
##لون
میهمان
یکسال
جملات
مغان
##المعارف
IB
ایی
ویو
نیما
طرفه
مقالاتی
محتمل
##خسرو
موف
موصل
المپ
مشتقات
موردی
حواس
صخرهای
بالدوین
##ابلا
توئ
##ینیو
ایلات
اصطکاک
فتوحات
##ندری
یکه
بالهای
ایزو
##تک
آشکارساز
اپیزود
عارضه
خاد
##سلر
نانسی
رمزگشایی
زحمت
##يل
br
بافی
دنبالهای
ترانهسرای
کاوشهای
باراک
شورشهای
کدگذاری
تراژ
نمایشنامهنویسان
##ology
##کوین
عهدهٔ
دینامیک
طولانیتر
##ازند
سهولت
سنتر
سانتوس
مبلمان
تمایلات
اورتون
منو
یاخت
تحقیقی
تابوت
##ene
گفتم
پاها
کاردی
##ke
##EM
##ورین
سیگ
آبجو
برادرانش
sm
فلام
##ودشت
برخوردارند
گرینویچ
انعکاس
##ng
درز
##تیه
ماهیها
ناتمام
۱۳۳۳
بوتان
کاگ
##لتون
##CO
##سترا
دانا
ساوه
فرستادند
آناتومی
اعماق
نادری
هالو
گرههای
##واژ
لاگ
پاران
##آپ
##پژ
##07
دریم
کناری
##کوو
طیفی
۱۸۶۹
پدیدآور
اخترشناسی
فرناندو
وزنهبرداری
زعفران
ربع
##الر
جنوا
پرتر
ادویه
##خوبی
بادبانی
افسانهها
رویکردی
هایدلبرگ
میپند
۲۰۳
فلوید
ژنرات
نبودهاست
دریک
همپوش
لایپ
نیلوفر
ایرلاینز
لئ
سرامیک
##گانهای
عمرو
بالاد
مینش
مبتل
##بوم
##ئیدی
الأ
##شنز
انطباق
سلطانی
۳۲۰
یادداشتهای
فضاپیما
روزافزون
chem
##سیوم
روکش
اسهال
وجودی
##جیان
تولیدشده
متناهی
تشخیصی
تندرو
##یروان
فسفر
خاچ
##گیرند
تلفیقی
آبریز
مترمربع
محمدباقر
يك
بهزاد
یونس
نگاری
سوزاندن
وسطایی
تقلب
##انسور
سختافزاری
بورگ
دیترویت
هیدهیوشی
نکت
##مونت
##ool
مساحتی
دانشکدههای
علاقهمندان
سایمون
شفیلد
جهرم
بي
بافته
تمجید
شبستان
نمایه
رؤسای
شوالیههای
SP
۶۵۰
##اتها
بلندتر
تایلر
بیهوشی
برکه
تحریف
نهادند
پیچیدهای
تبه
##اندز
۱۸۶۶
۱۸۳۰
کنسولگری
Pe
##یتها
ملایر
پلات
##ray
سرگئی
پرطرفدار
کارب
##افقی
آرارات
بکشند
تهماسب
بینندگان
##تمندی
تجار
تشبیه
عزیمت
ناصرالدینشاه
##دینگ
برمید
##دیو
##ons
کاظمی
سوزن
همدانی
منسوخ
باین
کفر
##rat
##erb
کوفی
جووانی
اصطلاحاً
عصبانی
مشروطیت
طبع
##port
مستق
استانداری
قزلب
روبرت
Pol
type
بسازند
شتم
##res
##چهارم
دارید
سخنرانیهای
شلوار
MS
ترتی
دلتا
دینار
حسینیه
همسایگی
ختنه
فراوردههای
##سانس
راش
شهرهایی
رسیدهاند
##اتیکان
اسپرانتو
##ابرد
اطفال
##ama
مزاح
اپوزیسیون
##پایهٔ
تکت
۲۵۶
فراموشی
Cit
پالرمو
میبینیم
لیزری
بطلمیوس
زودهنگام
DC
تعجب
گلبول
چشمی
شکی
##ral
پایبند
نقشهٔ
غیرمج
قطعاً
زمام
دکترین
نکردهاست
##سها
##IP
فیلمز
تحتانی
رستاخ
اینترنشنال
دایان
هه
سطر
۲۲۵
گیاهشناسی
دروازههای
چکش
##عا
همخوان
##بدان
دامپروری
لشکری
قویترین
ماژول
ترانزیستور
Mic
et
##فانه
میرز
دریاچهٔ
فرهنگها
کلاغ
قیصر
برانگیخته
ملاحظه
##کاب
##هرا
##ائین
##سپار
صمیم
سیستانی
تهوع
جیوه
والنت
عبدالکریم
کامیک
اقلیتهای
نوسانات
##یکی
##ble
##جل
دادرسی
اقلام
ترکمان
بردگی
جاسوس
حیدری
نامحدود
ازب
توف
##اکسی
کپسول
انعقاد
ثور
شهرام
پلاتین
دیدگاهها
گوان
روبی
دوس
##اپو
مطالبی
اوگاندا
جمعیتهای
تیموری
بهتدریج
نشدن
سیاستگذاری
سیاهپوستان
نباشند
ضربان
مینامد
Na
عجی
حلقهٔ
##ove
نصرالله
تشنج
اوان
فلیکس
ژول
##اییان
مرع
جنون
پرل
شمع
##واروپایی
سومری
تراش
آگاهانه
گوشیهای
سَ
##فیت
الکسی
مترجمان
ماهیهای
زمره
2008
آنگولا
42
Pa
##18
کارگاههای
علایم
شاهدان
حکمی
درمانهای
بورسیه
مارکسیسم
خاق
دراین
زندگانی
آرز
##سترانگ
پروین
گستردهٔ
##گیز
توپهای
طاع
##ien
##گراف
مینور
ناهمو
جنجالی
صبر
کاشته
نامها
##برده
نواب
کلک
خطاهای
خانات
فرمهای
گلس
##گرن
اصولی
##هنگی
لوتر
مفق
یزید
سالنهای
موه
مرجان
##ونیه
##ani
شکلات
کیان
۱۳۲۶
میچرخد
تراژدی
گردند
##خوف
فلاند
اورژانس
دوقطبی
بهروزرسانی
راورز
اوئ
عربها
لحن
عشایری
ببینند
حوم
رالف
سبد
##ثار
##ظهور
پورتوریکو
استنباط
##اقت
سیارات
آرانای
##خواهان
نشریهٔ
مابقی
گفتاری
ماندهاند
خزندگان
هیک
##شکن
نامر
##درصد
تبعیت
اژدهای
گجر
##مهر
##زاید
پاسخهای
پردازندههای
آنتوان
ورونا
گلپای
متعادل
پناهندگی
مدرسهای
کاسه
زاویهای
طلس
##ازها
مرزبان
##ize
طغرل
##TC
برح
اوپن
عناصری
##oth
دیرباز
آبراهام
متابولیسم
دورد
واز
##ختگی
نوو
نوشتهها
حکمران
دودویی
At
##حاب
براي
##ائن
آرشیو
ثبتنام
خیره
قوا
##ox
##ois
قتلهای
لحظات
دوجنس
بازو
پیشران
عبدالب
روسپی
اتمها
یونیکس
آگوستوس
آرمسترانگ
Sta
۲۰۴
##گانهٔ
ادگار
شهدای
شیفت
۳۳۰
##LA
اینشتین
آشامید
رباعی
هریسون
رفسنجان
انوشیروان
مارین
پایینترین
زیستگاههای
عهدنامه
رکوردهای
نتواند
برنزی
غرامت
پشیم
واتیکان
پسته
##دور
ملیگرایی
دبیرستانی
وارون
قزلباش
آیند
##سنی
##کراتیک
tr
کتابشناسی
##ستیزی
##زمینی
جدای
وینی
##ههایش
##لوا
منظره
هرد
آزادر
کریستینا
PS
وجهی
لئوناردو
رشوه
عتیق
جعبهدندهٔ
##ule
دارندگان
اسپیر
خیبر
معروفی
سراب
##era
تلاقی
الیور
بسزایی
دیلم
شیا
##فتری
##فرض
سهل
یواس
پیشنویس
کنسرتهای
صلاحالدین
اجمالی
نانوذرات
are
##ازول
رقبای
##تلر
سافت
لایو
ناکار
نایبالسلطنه
آنچنان
آنه
ساختهاست
بارهای
نوشتند
ابدی
دوبلین
غیرمجاز
##udi
نوآر
استیضاح
متأخر
واترپلو
ناامیدی
اساتید
Ed
For
نشوند
Or
ثابتی
دارال
##سترون
رنگآمیزی
آپارت
زبر
##yd
روزولت
گفتوگو
حکومتهای
پستهای
اپید
##ember
تهدیدی
فرگشتی
Mus
چیر
##ئیل
جوانه
کلاهبرداری
انعطافپذیر
دیکتاتور
میکردهاست
34
##کف
هیوندای
غیرخطی
چهرهای
جامائیکا
##اونی
##اسیر
##دیک
دیپلماسی
پدافند
۵۵۰
مدرکی
آشامیدنی
توافقی
بدنش
##سترول
مارسل
##ings
سلسلهٔ
نژادپرستی
Res
بوریس
##فرا
##LS
بیرنگ
مارپیچی
اخوان
info
ارتعاش
list
پانت
سریانی
فینیکس
##جره
مدون
گنجینه
قدرتمندترین
عذ
۲۰۵
##باغه
دانهها
نگذ
اره
صحنهای
رفتهاند
چرچیل
نیاکان
مغولها
نامزدها
تامپسون
بینظیر
خج
لئوپ
عقرب
آسیبپذیری
۱۸۷۲
مخروط
##زونی
##زبانه
منزوی
##زیان
خوشی
پرداختن
پاکستانی
اتحادیههای
بدیهی
ارگانیسم
محتویات
وت
یخی
##lar
متاخر
سپیده
امامان
تیتراژ
هیرو
کانونی
قطعهای
##رتز
آدمی
چنار
رودریگز
میانرودان
ریشتر
بلورهای
داود
لرزش
کاستاریکا
رفاهی
هونگ
قربان
دولتم
میانجامد
##ole
لغزش
جفتگیری
جاندار
کبیسه
دلو
سرمایهگذاران
لنینگراد
ناف
##da
##تیوو
بلشوی
##گاریت
گلدوین
height
بپذیرد
جیتی
مسالمت
موزههای
اصالتاً
پدربزرگش
بعضاً
گریم
اهور
دهانههای
گذارد
شبهای
اشتوت
ایزدی
زیباییشناسی
وایکینگ
زیارتگاه
توریستی
یوشین
jp
##وویچ
##وسیا
##اویروس
گواتمالا
قاع
بااین
##ریل
آلو
رشتهها
##000
تقویتکننده
حبیبالله
اشعاری
تذکر
##ux
##امای
##تیوس
##ندهها
##لولی
بریتانیاییها
۱۳۱۶
##آلود
آسم
ساف
كرد
کیتی
##ومین
سلف
##وسیان
محدودیتها
آکواریوم
قورباغه
جیرو
شافعی
اتباع
جانگ
خانق
مقرون
اقتصاددانان
بهسرعت
واژن
استودیوز
ناشران
Li
لاند
آنکارا
سریالی
ایستاد
رحمان
آدری
##کستر
اینتل
هانو
آماد
بیط
مدف
کلیوی
ناخوش
انسولین
الملک
قدی
پیشفرض
بردهاند
بهخوبی
پسزمینه
مذکر
نیمهن
۲۸۰
تصدیق
as
سمین
##۳۵
تعاونی
قرنهای
2012
برهمکنش
گئورگ
وورت
پي
اینچی
آلفون
##فیزیک
تخمیر
##سوده
بهای
##اقهای
##اکاری
پارکینگ
دیرینگی
غزنوی
ندان
##24
محاصر
رویش
ملیت
ترکهای
##ars
سکسی
خونآش
جادهٔ
میناموتو
رستاخیز
Cal
We
گُ
بهجز
هممرز
تانکهای
نمیداد
عادلانه
همپوشانی
بهترتیب
سگهای
فضاپیمای
شفی
##دس
##we
##جاست
##ریقی
اسفر
آکورد
غریبه
واع
##ham
فتحعلیشاه
DS
ضیاء
پوینت
##ual
ترانهها
نخجوان
منتسب
آزادیهای
عبدالح
شرکای
کپنهاگ
استانبولی
##ایدو
آغوش
باستانشناس
اپلیکی
##گمش
Nov
##رام
نامهها
گزارشگر
دنبالهٔ
اعتقادی
پذیرفتند
آشپزخانه
مژ
##اموتو
قرآنی
##الیان
مدرنی
گیب
نیمهگرمسیری
گیلگمش
داوید
begin
نرساند
Mod
جکی
دلس
شایان
##رن
##چاله
##ابایت
2014
نکردن
موازات
بخصوص
##شنا
دریافتی
ریکاردو
South
زامبی
return
گِ
توک
آقام
خشای
نژادهای
##قفی
##هاب
۱۳۳۱
آوازی
دکمه
غازی
##oo
باشم
مدیرکل
ناحی
هدفمند
فرایندها
انتظارات
بیاورند
لحظهای
زهی
فانوس
##عدی
زاغ
بروجردی
آوا
##۸۶
میگری
کیلی
۱۸۴۰
امپرا
طاعون
line
##لوی
استارت
هیبری
متقاضی
کربنات
نوکیا
It
جردن
پپ
##گنی
##عو
##وتومی
معال
میهنی
بادن
برپایه
تپهای
قاعد
بوف
##erm
سواران
قطعیت
الجزیره
سلب
طیفس
شاتل
##چلی
##ینک
استند
##شتن
نوظهور
بنویسد
گوینده
تابلوی
##ll
سیلور
ژیمناستیک
##ward
ایوبی
##انسکی
حمایتی
تعاملی
درمیآورد
اجزاء
##سینی
پیز
استفراغ
##کتوری
تعالیم
یادشده
سردشت
تدوینگر
شبهنظامیان
پرکاربرد
بجز
صدم
##تکه
دردسر
Mon
نماند
ژل
۲۰۷
##ert
بزرگترش
نهادها
لئونارد
کلانتر
اطرافی
رفتوآمد
آزمایشگاههای
سردرد
بمبافکن
فا
جنوبگان
خواهرزاده
نیاورد
چاد
##زمایی
##08
##فتو
میکروف
هراس
فارنهایت
##chn
حلقهای
اعتدال
معتبرترین
نمیرسد
##ونین
تودههای
مدد
مردانی
الیاس
نمودهای
سیزدهمین
##ستال
##شتهای
پایتون
شمیران
##کوپی
بازیکنی
کامران
انرژیهای
هارمونی
نیوکاسل
محصولاتی
کاوه
اسپرم
اسطورهای
تنباکو
نیمهنهایی
##اهمیت
۱۲۱
شاخصهای
##دورف
##یداد
کمبو
پرتق
مولدا
عبید
پدیدهای
اپلیکیشن
##نب
برمه
مسج
مجموعهها
قدامی
چونگ
۱۸۷۴
اصولاً
۱۸۵۷
قشون
فاشیست
مبتلایان
آمور
نخاعی
شوراهای
قباد
سوپرمن
کاسپین
گورکانی
##ّر
شیشههای
##isc
ترجمههای
آرایشی
سمفونیک
آزادراه
31
ماخ
هرو
ویز
مشای
بزرگسالی
شاهرود
شیروان
کاذب
جامعهای
عاشورا
قلعههای
چریک
##چوان
زناش
شکمی
فردوس
##ada
عظمت
میکردهاند
مدفوع
##پید
##غدی
##ختند
عملگر
بیستون
des
دربرد
بلوچی
پیشینهٔ
چارتهای
غسل
##ملی
##lation
مفسران
وثی
دستها
انتح
افسری
##نف
##فیک
##پون
##اندرو
##بران
مقامی
مؤسسان
##یلین
بیجار
##الیه
##اپر
نخود
محمدحسن
انباشته
بارسلون
اسپنسر
آیس
شرب
بردهاست
##بیآی
داشتم
پارهای
مایا
ممانعت
تندر
یولی
بریز
بیب
##ونگا
سرخپوستان
ماشینها
چریکی
مشارک
تصوف
##پوشی
منهدم
رژه
توفیق
ناگزیر
My
بجن
##ویلی
##ونیوم
پررنگ
مصمم
راهرو
آقایان
گستردگی
بیطرفی
گیس
##ربایی
سیلوا
##زیدنت
انگیزههای
آتشنشانی
مفقود
##ستگان
##هاوس
ساختوساز
غیرمت
سیاهرگ
بسامد
ES
بشمار
##برگر
سردر
باغها
2024
معاینه
اشتوتگارت
روشنگری
فضیلت
صوری
##چان
##بیح
##نیای
ایلامی
##ووو
سهامداران
سنجی
غلی
##ّم
##شتات
##ازهای
مجالس
سیه
مشی
شرکتهایی
علیزاده
تردد
Provin
چیدمان
##وژن
آمین
سرگردان
رنگار
ایالتها
مونتر
ناخود
قایقهای
غرور
کشمکش
غده
فراک
کلوب
پرینستون
کارخانجات
دیگ
##erg
##ery
دریاچههای
مشروع
باختند
فاشیسم
دولتمرد
خودآ
برخاسته
نتوانسته
سازمانیافته
میزدند
##adi
##ارتو
جامعهشناس
۱۸۵۹
بنگالی
جودی
احمق
چندزبانه
توحید
تلمبه
منسجم
CF
پینی
ماهنامه
۱۲۲
برجستگی
##لاطین
Har
بطن
فرج
نکردهاند
برآمدگی
تَ
تندی
##AL
##ero
قیمتها
شایعه
عمیقاً
بیسابقه
پارتیزان
GP
##ارند
##rce
چندجملهای
##formula
کثی
##روع
روسو
گفتمان
استقامت
وحشتناک
ST
##قع
##ring
مزای
جادهها
کلیساها
##sch
اصحاب
پارینه
هستید
سقراط
##ski
موتورسیکلت
انضباط
کاتی
اینکار
##انیسم
اسپه
##بلاست
امرای
مونترال
واندررز
غیرمنتظره
یر
متولی
##ائب
مادهها
فیت
نط
##ووی
۲۰۹
##رخان
ایزدان
باکتریایی
طالقانی
##ضلعی
قوچان
متضاد
والنسیا
پلیتکنیک
حجر
شول
شوید
فاح
هلو
بریک
چندم
##خواب
تخممرغ
منازل
##گت
مرجانی
الل
##سرایی
بندری
نیامده
اشتراکی
کثیر
##خند
درههای
میکروم
بلان
کنترلی
##itt
تقریبا
نرها
مکزیکو
وزرای
طرد
##لوس
##RS
##ارز
عمو
##لبانی
چرخهٔ
ائتلافی
درآمدهای
لوکوموتیو
تراج
کولین
##انیها
منجمد
بیگانگان
Citation
آمینه
##شکا
تمدنهای
##ساران
نوآور
دیگرش
حسنی
ساعتهای
انقلابیون
##فروشد
چهاردهمین
استبداد
پنجرههای
Jul
پریم
متهمان
دیس
##وزان
افزودنی
##بیاو
تشریفات
لایپزیگ
بغل
نایل
##aa
##یلها
بداند
ارتکاب
خاندانهای
چینیها
۱۳۱۴
نرسیده
خویشاوندان
قاعدگی
CN
یوم
دیپ
زمانه
##مبلی
آبراه
##نگان
نگهداشت
منصرف
فرکانسهای
رندی
عدن
استال
سالِ
کردهای
هندواروپایی
باتلر
موقتی
سردرگ
پارکهای
##ووات
مهمانان
منفجره
شاسی
##ئال
##کاره
روسای
بخشد
تشع
اشتاین
تیرهای
##ello
نیکولای
شبانهروزی
میوههای
فید
##53
##روپی
##واور
ماتس
فوتبالیست
رخت
وسو
##ارههای
همسان
##اوران
بعید
مغایر
رزین
پاتری
بتنی
بمیر
##ena
##نوازی
۱۰۰۰۰
##ووانی
مبلغی
پُر
##رژیک
##لمین
##جارهای
میه
فرمی
سیالات
سینت
فیلمسازان
قرعهکشی
ورشکستگی
خدابنده
##ناز
##شها
برس
کلیدهای
##پیکر
لِ
ورک
میزیست
صورتهای
تدفین
ناکامی
نگارخانه
گیمز
غیاب
##no
##وریها
##وندگان
پروسه
دریاس
گذاشتهاست
مسموم
رسالهٔ
عنو
اینان
بدخشان
سیارهای
دادگاهی
ترنر
نشاند
##ارتا
سوژه
ماهه
تلافی
مورفی
تصویرسازی
انسجام
ژاندارم
راکتور
##تیز
سرامیکی
معرف
رهگیری
تماماً
لشکریان
سوختهای
رجوع
ایرانیها
آریا
غواصی
منبعی
##فتن
سرن
مدلی
بازنمایی
پدران
اوراسیا
۲۳۵
اچبیاو
عکسها
استوانهای
فازی
##اقلی
##نواز
##ism
##ابدین
تبتی
الگویی
توپولوژی
هیروشیما
جریانی
نمیکردند
AT
رغم
توبه
مدام
بعداز
تهدی
هانتر
خلاقانه
باهوش
کالد
##چینو
##ینگر
میکس
##وزو
##شیپ
ویدیوی
معلول
ضعیفی
زناشویی
National
تکی
جوئل
زمینها
هیوز
میچل
فرنچایز
خوانی
گردیدند
بله
سلاطین
##سنج
##پوس
##اهان
پیترو
انباشت
ارگانیک
لگن
##فات
محوریت
##add
کیمیا
کوسه
واعظ
37
HD
دکور
استپ
استارک
کتابخانهها
##پارچ
دادستانی
کیخسرو
چراغهای
##799
پلتفرمهای
شق
صالحی
##اترین
مناف
بوه
ریختن
استراس
غربال
شجریان
بهوسیله
تبلور
##خواران
اسکور
مادون
گیلبرت
پالاس
Park
بریدن
تاریخنگاری
تعصب
میگوی
مبارزان
تسلیح
میدارند
بودجهٔ
آبخ
بالستیک
جلالالدین
اکتشافات
جولای
ماسی
##ضرب
راکی
##اسپور
##راء
خوشهای
اثرگذار
همسری
بیگم
بفرستد
##ایو
زیرشاخ
##ins
سنسور
آمریکاییهای
نویسان
حضوری
سرخس
رمزی
ارکان
##زارهای
##شرق
گوشهٔ
کابلی
گوارشی
کوئینزلند
##تپه
برگردد
منچ
تعارض
خصومت
گیلاس
comp
رشدی
روشنفکر
نواری
افبیآی
##وشا
شعبان
نیروهایش
گنجه
دموکراتها
##نفره
405
As
جبال
##AF
ترنت
طراحیهای
هلدینگ
اشتباهات
##آرایی
بدیع
Ba
On
##عصر
همبازی
تاکید
دیالوگ
همراهان
سیاستها
ایدهها
هولمز
آموختن
##سلیمان
فرآیندی
الْ
کنراد
##دادن
سوختگی
اندیشهٔ
Kh
زوای
فولی
##ریال
##بره
##وندو
نورنبرگ
پیروزیهای
لایهای
بیداری
مظفرالدین
##ماندی
##وبه
تقطیر
دندانپزشکی
گودال
اسکیباز
گریختند
پروداک
OS
سیروس
بومشناسی
فراخواند
مولداوی
Fl
res
خانی
##يي
##یاک
الرضا
نقاب
غیرمس
نداشتهاست
معتمد
تمسخر
University
UN
چاو
سابقش
الکتریسی
آدریان
فهمید
۴خانوار
دورتم
##ane
نمیخواست
صدمه
احتمالات
##محور
##فوظ
پویایی
عنوانی
پط
کب
##RC
##َس
بهشکل
براق
ایگ
آلک
مشهوری
##وسیوس
القا
زینتی
##liament
انسداد
سونیک
##uch
یکچهارم
الزامی
هرتز
ادعایی
الفبا
گرینلند
جسیکا
ربانی
استوا
آمینو
متافی
نیوه
مربعی
فوتون
جوانتر
سرودن
اسیران
##ماهیان
دومینیکن
فدا
استریم
انصار
##راقی
##وئوکا
فرماندهٔ
نوروزی
##رفیع
##ope
ایلخان
چاههای
کتک
اعضاء
هیدروکرب
Ap
دمی
چوی
##هاء
روایی
##ادیس
موجهای
گیاهپارچ
حسینآباد
تکنیکی
آمیزی
خویشاوندی
عجیبی
فح
بیوشیمی
##نیان
فلک
سفالی
قبیلهٔ
چرخد
خانقاه
عیب
۶۰۰۰
##ij
##آیند
مناره
##ولات
پژوهشگاه
ایزابل
##ویسند
دوقل
پلهای
##جمعی
کودکانه
حلی
شاو
##اراتی
##الیت
قرم
##وبل
بازدهی
نهان
شاغل
زینب
No
تأمل
تقلیل
##rag
حسابهای
تهدیدات
##هزینه
##لینگتون
تشریفاتی
Mont
##ژین
##O2
ایافسی
##وهید
خواهی
درصدد
اسمک
فانی
ایش
حملهای
مجمعال
عشقی
پدیدهٔ
دي
فابی
باشی
۱۸۵۶
کلاهک
درازای
Eng
الکترولیت
هلیوم
برگردانده
38
فوج
بدوی
کشتهشدن
ترانهپرداز
دزدیده
ساکت
دورتموند
عطف
فنر
##ومیر
امل
پیکار
حسام
دریاها
عنصری
اشمیت
آبکی
شبح
شوشی
منشعب
ماتی
ولایات
هستههای
۱۳۲۳
اسطورههای
45
ID
Tur
##۴۵
اتلاف
کیفر
##ited
##خصوصی
راندن
##عبد
فرون
تجلی
یهوه
سایوز
زاویهٔ
فضلالله
آوان
##atch
مؤل
رانندهٔ
ستونها
آمان
##دانه
سرگرد
تمایلی
منتظری
خزانهداری
نمانده
##ford
##ener
مورچه
خلفی
کارهایش
رنجرز
ناخالصی
میخواهم
فاو
کانس
##بائو
۲۰۸
ماهور
##سالو
پلیآف
هفتهنامه
##AB
منابعی
نوهٔ
هرت
2010
تحصیلاتش
گنبدی
استوانه
اولد
مارکی
آزمونهای
اویغ
مرخصی
بندهای
چوسان
کلیولند
باستانشناسان
##ساندرو
رنگارنگ
تراجن
روزگاری
رسانا
##کانسی
طریقت
بردارد
گزاره
خردهفروشی
طوم
##صن
##وندها
کمپلکس
میرحسین
سامانی
پشتو
غافلگیر
پاکی
##زاسیون
##استون
سرانه
##anc
۲۱۵
پوششهای
رحیمی
ترتیبی
آیک
پاف
##۹۹
استات
استایل
روچ
کما
سمتهای
سرمایهگذار
نمیتوانستند
تایلندی
قلیایی
علاءالدین
Mag
فنو
##یابد
##حهٔ
نیچه
دورافتاده
قسمتها
مفع
برندهای
پیامبران
تُرک
خاویر
دسی
طغیان
وحی
متد
یاکوب
نهفته
Parliament
غلیظ
لابی
انه
منصفه
سوزانده
میخواندند
بیندازد
ببخش
شبان
فاع
مرادی
مجذ
کیست
میگشت
اِی
اژدر
کوهنوردی
International
Cy
بستان
##سیها
احمدآباد
فولک
زال
نیسان
شبها
میانجیگری
تسو
تزاری
صرع
ممس
##۳۳
##نک
##بافی
##78
##وردان
فقرات
توصیفی
۱۸۵۸
##uz
##اکه
ترشی
انجماد
##تورپ
برجام
حسینعلی
میوهها
داف
گوری
##arch
همگام
##استار
فرمانی
پرهای
گوگن
کالینز
خاکهای
small
بشار
صل
بافر
آلبیون
جوار
سختتر
والاس
متأهل
استراتژیهای
بگوی
میخی
آناه
توسکانی
تمبر
اندلس
ترکیبهای
مارتا
سنگینوزن
منحصراً
ربیع
##ثق
##ارس
همجو
مسئولین
کاسترو
سیبزمینی
خوارزمی
تاند
خسر
گریف
براین
محسوس
جیان
تعمیرات
لاریجانی
خوشبختی
چیت
گمن
باتی
کارتاژ
سیسیلی
##برداران
توسعهیافته
گونز
لبههای
طهماسب
برحسب
دد
سغدی
##ذری
بهاری
برمن
##اساکی
محفوظ
بینش
خوابی
سوخو
فروسرخ
ماندگاری
بیستمین
مستندات
##نامی
##جوش
##ینیوس
کوشک
بنیامین
پولک
پروازش
##چنزا
راجرز
EC
ac
یول
کلمن
تکههای
درآمدی
تفاهم
پیاچ
##اوت
دردن
نامتن
مارکسیست
پیکسل
##79909
40579909
##رهٔ
##قلعه
شهدا
دیدم
ولیکن
سلطهٔ
اجرام
۲۲۴
گرانقیمت
اولیور
معصومه
ماموریتهای
آنزیمهای
کینه
چهارچوب
حسابر
تفسیری
ایزابلا
رگر
نون
##استانی
##ومون
سرپل
##اکار
پیشرانه
مشترکالمن
بیمارستانها
لینچ
گویشوران
صخرههای
فسیل
گاندی
بزرگش
##واکی
حسادت
محموله
کامپیوترهای
اسپرینگ
مطبوع
پروتکلهای
ونیزی
Bla
##بوری
##امر
دیزل
نامت
کلاب
##arn
جیووانی
الیس
کروبی
تریاک
۱۳۱۳
گروس
##کسین
راستین
دابلیو
پروستات
Bri
پالی
واجب
هندوراس
لوگان
دبیرخانه
مازاد
وثیقه
##لرز
##22
##پاس
باط
##پناه
ملاحظات
مشترکالمنافع
نیای
##اندرت
##ator
فیات
حجمی
ناکافی
الکتریسیته
ترفیع
زشت
شیاط
فیلمنامهٔ
ویزا
گروی
##لوبی
میکردم
مهندسین
مشارکتی
ممسنی
##ئیس
زیرک
دریانوردی
خلفای
بافتی
عکاسان
افراط
معصوم
شکوفا
خرا
خیس
##آرا
مشورتی
کلات
##وقه
باقیمان
کوشید
تکلیف
پهنه
امیران
حافظهٔ
رویدادی
طلسم
دامی
ضمیر
پسند
##پیو
۱۷۰۰
##ett
اردلان
گذرنامه
میگذاشت
بدانند
نیکلای
سینی
هدی
##گرداند
۱۳۱۰
نیکولا
Gran
سانی
##قط
میکل
ملات
چشمهای
سکاها
تحلیلهای
مقدمهای
##پوشیده
سکهها
فاکتورهای
canton
غوطه
۵خانوار
استه
برآمده
مشعل
مطیع
بلیط
کریستیان
وراث
لاف
##شات
##ودان
خودِ
اعیان
تیان
تلاشهایی
متمم
ویروسها
کنیسه
نئاندرت
ابومسلم
List
ساتر
نید
##mer
##شتم
اولش
##وئیسم
اسپانی
تخیل
گردشگر
تاکستان
بروزرسانی
عالیر
همگن
تمر
تشکر
ماهیچههای
کلوپ
مارکسیستی
کرنل
##con
##اریها
##گردها
##اطی
برکت
رسوبی
راهحل
مالای
فروشندگان
##تیمور
هجرت
فائ
هاری
##شدهای
##IA
قلاب
##ise
مستندی
واتسون
هاپکینز
بوری
زاپ
##ِش
یاخته
بوئ
تنا
فیور
زهکشی
بهبهان
##امزدا
روغنی
انتحاری
جزر
جینی
##ler
##دختر
##۷۵
##توپ
هلنی
بیمارستانهای
خنککننده
لیدز
واگنر
چاش
چطور
بیخد
کنندگی
بلوکهای
جنبهٔ
##ura
پیمایش
استیاس
هورن
سولفات
##آغاز
سدان
##بکس
نیکار
گروید
شرع
مستقلی
کوچکتری
##رانهای
بخورد
خریداران
متفکر
پلیمرهای
هوافضا
ناخودآگاه
##ound
میا
##یتاس
##ini
آرس
نیافته
۱۳۰۴
مجارستانی
برپایهٔ
آنتیو
ارایه
تولیدمثل
اغراق
نمیتوانی
کسروی
نداریم
##لاج
پشتون
اهورامزدا
غیا
##ودند
##las
##کنار
##ونیستی
تحلیلگر
کُردی
۱۸۱۲
برگرداند
مجمعالجز
دردناک
نمایشگاهی
##جواد
غذاها
دامغان
هواگردهای
زیمباب
Bl
خلبانی
غارهای
اشغالی
پاسار
یوح
آشوریان
2017
برادری
بلیک
ترف
##ژیت
##خواند
پسا
افش
تخمینی
تفاسیر
کوتاهمدت
تریپل
عقیدهٔ
##۹۵
##فراز
توسعهدهندگان
۲۵۵
مرزها
2011
کمونیستها
پسرانش
خونآشام
صم
##فوس
همگرایی
آلزای
سنس
حکام
##ave
Do
مدیسون
داران
بخشش
مهرههای
فولکس
چسبندگی
مافوق
##فست
پیان
معقول
الوار
علایق
نگهدارنده
صفحههای
کلوین
ویسکونتی
خلو
هپ
آلترن
پلوت
رایانش
##ظاهر
التهابی
حاتمی
بتو
هانگ
##نژاد
##99
##اییتبار
پیشدر
شیوا
رهسپار
کوچکترش
گماشته
شناختهشدهترین
ارزانتر
قبولی
##بوس
##حث
فعالی
مسجدسلیمان
کع
ایبری
ارثی
مثالی
##قرانی
ایستادگی
واژهها
خریدار
طالقان
فرقههای
باسو
##گریز
۱۴۱
تیروئید
پانزدهمین
طاهری
Ger
گویان
اتیلن
کلسترول
##شدگی
##انته
گوگ
آیندهٔ
اتاقی
سالمندان
هوانگ
میخواهیم
بفه
##سوت
آبشاری
##انتری
نمیآید
تمامیت
نتیجهای
نیمکت
دروغین
نصیب
CC
Gro
##يان
باو
##lam
داستانهایی
فریزر
لیتل
##طرفه
محفل
دیود
##زارها
کاشف
شیاطین
##نکو
تاریخدان
##اخی
ثبتشده
القاب
علاقهای
پرشور
ندیده
وایم
پروژهها
سندیک
لوبیا
##ابنفش
##ye
متریک
میکی
رودولف
باورها
ظهیر
بخارست
محاسبهٔ
لوئیجی
بقیهٔ
مصلحت
Sk
ژئو
##ضم
نورون
زنجانی
تروت
آلزایمر
me
داعی
شلاق
پریش
##NT
##صور
##۸۵
##گیران
تاریخچهٔ
شرلوک
تعالی
هاروی
ناپولی
Arm
امپراطوری
Tim
شکننده
نرد
##RA
##FA
مرکبات
##وکندری
همهچیز
نامشروع
فمینیست
موفقی
لئوپولد
Sup
خفه
##موف
مانگای
شهرستانها
مخارج
2015
##ade
مخلوطی
شلوغ
جیکوب
شیلد
فرنگ
مارچ
پیشنم
ایستا
Region
تفا
لط
##ارست
بامیان
##فرنگی
فلاس
گوشهای
مکاتب
Saint
مجتهد
Cap
مقن
اولاد
اکدی
مینیس
##اتوره
قدمتی
Amer
دائماً
خندق
ندهد
راهبان
ژانگ
بیتوجهی
فضانوردان
میپرسد
زکری
ژنی
##شونده
علویان
چندآهنگ
مصریان
ولد
تخمدان
##unction
##وپاتی
متغیرها
##وحش
قوسی
آناست
تاو
سراز
پیشوند
پارچههای
روستاییان
صدد
ارزشمندی
اسپرینگز
توطئ
موروثی
##ren
##جور
همو
سرحد
نشینی
فردریش
گازها
نرگس
پورتلند
متروکه
آکوستیک
Il
عیار
استور
انور
انبیای
فرابنفش
کلکته
آبج
گروهان
شعارهای
نقاشیها
زندانهای
گذرانده
پران
انتساب
هیپو
پیامد
پیامرسان
Indi
اساطیری
ارتدوکس
App
##۳۶
##af
##زدن
میروید
نشانههایی
##ames
##ute
دیدهبان
حجازی
پروژهای
##ograph
##قدرت
استعدادهای
هیسپ
تریب
گت
##ابیر
نفرات
##ature
دامپزشکی
گشتند
واشنگ
امپد
قایقرانی
Ser
تایی
##۳۴
##سس
##ظهر
توفان
##tain
کوبریک
بویه
نری
##وریال
پارکینسون
یونانیها
۱۸۵۵
بوته
Bel
لپ
##مبرگ
مشاهدهٔ
نظریهپرداز
۱۳۱۸
محوطهٔ
زیمبابوه
آنژی
##تمام
سوگو
##سکری
آندرو
۱۸۴۹
درآوردن
شرا
وردی
کارلس
هایپر
میگل
##une
خروس
بیلبائو
لیندا
افتادند
درایو
ابرقهرمان
ابرقهرمانی
پروندهٔ
Ak
Tri
بپوش
حت
پیستون
جواز
بهعلت
بهعلاوه
گیلکی
میفهمد
میانس
برات
دوغ
ورودیهای
نرفت
سوختن
وایس
پرتقال
شاک
نجم
شیرجه
دوچرخهسواران
##berg
سوسک
میتوکندری
زبالههای
ساماندهی
Rep
##چیا
شیار
بیدرنگ
آلبرتا
درود
دورود
برنامهنویس
ماشینآلات
مدیون
نائل
##گاهرتز
ایذه
سیارهٔ
کلارا
صادراتی
ریچل
ژنها
دیلمی
فوجیوارا
##ناو
##ظبی
گوشتی
##tive
حلقهها
شاعرانه
هانری
قضاییه
حیدرآباد
شوق
نواخته
مادرزادی
ناظران
الکترونهای
آرامستان
آهنرب
درآوردند
میوزیک
عبدالبهاء
##ثال
جمعیتشناسی
شعاعی
پنوم
دستورها
ستارهها
##ote
۱۳۲۲
امانت
راحتتر
زاب
ندار
یاب
میرسانند
مدالها
تهیهکنندهٔ
##hed
۲۳۸
منظوره
۴۲۰
هگز
##ON
##پیه
دریانورد
##ilm
ناهید
چوک
##26
مسو
بیشماری
مدح
##اسیان
##ابهار
اعترافات
Sm
پتی
##25
توازن
##وسک
##کلر
ابط
لوگو
##lex
تحریریه
چت
##یابی
##آفرین
دانته
تیموریان
خردمند
ارجاعات
امریکا
سراج
##یتهای
آفرید
تالین
رضاخان
حجاز
۱۳۰۷
برآوردهای
رجایی
همزیستی
مته
آمریکاست
آغازگر
قلهٔ
فروغ
۲۱۶
کلاسی
ذخیرهگاه
All
ممنوعه
گلبولهای
محاصرهٔ
کثیف
میکرومتر
بکند
مادل
##ْت
بیابد
دوجانبه
زنا
افسون
بناها
۱۴۲
##ose
۱۳۱۷
پیداست
تلگرام
پرورشی
درمورد
Pri
بطوری
تمی
طاووس
##بوی
پیج
##افری
اسپری
هنرمندی
ابوظبی
وبا
پیغام
زیرر
روزبه
مکعبی
طبل
۱۱۰۰
گیربکس
خالقی
جنایتکار
##rame
##IM
##شتری
##یتال
##هنگام
##پیون
بازارها
خلوت
پرتوی
##پورتیوو
زیرمجموعهای
مکانیسمهای
اسپورتینگ
Soc
رجی
##لایه
تاشک
بازهٔ
ورامین
تورهای
ملاحظهای
منگنز
مؤلفه
IT
##ِّ
##حدی
دارالف
سامانیان
آموزشگاه
الموت
مظهر
لوزالمع
Pre
لمب
مبال
چز
##وچی
##فید
##لوپ
پرستاران
تخمک
باتلاق
سوارکاری
Sec
بازیکنانی
گردنه
خیز
مقاومتی
تاجوت
##ays
تجربههای
مدیچی
رخدادهای
تناوب
هامون
پرورد
بیرح
سنگوکو
فراگرفت
اکسیداسیون
بانگ
لطفی
##نگر
جناب
میراند
مستغ
کاملا
##نسکی
تالشی
کنگرهٔ
بکجه
سلوکی
لیسبون
ثروتمندترین
##فورماتور
Met
Sw
هکر
##be
##سیاه
۱۸۲۰
هیولا
مطالعهای
##شناسد
سیرک
جسور
انداختند
عقلانی
##lank
فراکسیون
تاجوتخت
نگری
##ریض
ایه
قلعهای
اکستر
##تونین
زمینهها
مولکولها
گشوده
کعبه
شفت
قذ
پیگرد
##دران
##ائه
##رانند
صفرا
##ولوگ
دستهجمعی
واژهنامه
ابوسعید
هوت
##LC
##انسانی
کمیتههای
مضاع
طرق
رگهای
قصیده
شلی
چابهار
##آمدی
##وبیل
مارمول
گولد
##oid
##سیاس
##ونیو
لیزا
منتشرشده
حوثی
دیوارههای
۱۸۵۴
غنیم
##دهام
##ونلو
##وسون
دیدگاهی
فروغی
محدث
پیوستگی
سایش
##اردار
مینیم
طرفداری
فراغت
تویوتومی
آلبانیایی
زاگرب
سالهٔ
بنادر
خواهید
لوفتو
تومانی
سرمایهدار
گریت
اچدی
اقیانوسها
شباهتهای
اودین
مستقیمی
دارالفنون
لوزالمعده
تنگی
##RNA
##حر
آملی
متجا
نگهبانی
##میلادی
۱۳۲۱
۱۳۱۲
arch
خُ
رِ
رامین
##الاسلام
باپ
رحمانی
هانوفر
سردرگمی
فعالیتهایی
دریافتند
۲۱۷
گونههایی
جلسهای
##ومرث
##افیل
##انسک
رسالت
جلالی
نامیدهاند
آگوستین
ادراری
MP
آوای
خمس
لگاریت
ملوک
##اتوم
اندو
##als
نورالدین
اسکله
پسرعم
میپوشاند
نعمتالله
میافزاید
لوفتوافه
زنگی
##ila
##77
بیشه
مدیت
##امیه
##نتال
##سدورف
بورلی
خلقت
صوفیان
ساردینیا
##حمدخان
اربابان
ذوق
ماق
##NO
ستوده
مفاصل
ایتالیاییها
احمدشاه
نصیری
زودرس
استانداردها
تربیتی
پاسی
##any
جانبه
آهو
نیشابوری
واشنگتن
44
پاراد
۲۱۴
##نانگ
مبلغان
##کینسون
John
لاهور
پینیین
رگرسیون
فرکانسی
نامِ
هوف
احتمالا
##ott
چیزها
گماشت
قصههای
شجره
سؤالات
Mac
تسکین
##رند
سرپوشیده
شنای
رأیده
۳۸۰
باقری
پیشنهادهای
City
دجله
##باح
##انیست
##شنامه
ترانز
کیوان
2018
عمیقتر
گجرات
لاور
کژ
متان
تعرض
قدرتمندی
دموکراتهای
قارچها
تاکتیکهای
آیم
حشم
رانی
قشم
##سیدن
پروف
پذیرای
سعود
2019
۱۳۱۵
CPU
بکت
##شام
همتای
ایشی
استفانو
##ویتز
طولانیمدت
استیشن
خواندند
بیهوش
هابسبورگ
Open
درن
گرادیان
نماهنگ
افشاری
##ائیک
فیبرو
تفاوتی
والا
عرق
القایی
لاتزیو
مینمودند
بجنورد
طراب
مکی
چچن
یقین
##DF
بیایند
دوبر
نمکی
مردمانی
تبریک
##umb
شمشیرباز
##ECT
رسانایی
طیفسنجی
رَ
هذ
شنود
##کشانی
عکسی
دلاور
مکلارن
رقی
##هرست
تودهای
میشویم
##ائولو
راهها
میشناسد
گومز
بوسیله
اسفراین
تروی
افراسی
توانمندی
اسبها
تولوز
لومب
ISO
وریدی
IBM
غلاف
گمراه
سربی
مرکوری
شکلدهی
فلوت
رهن
هاچ
امتیوی
کتبی
لورنزو
شینگن
نسیم
##va
گلکسی
رئیسه
دفعات
ژوست
##EG
دروی
ویگ
##رفورد
چهارراه
##بودند
۳۱۰
اپیک
بمبهای
IV
سلتیک
حسابی
##وقوع
۱۵۲
سرعتهای
فرامرز
ووی
##دستی
##89
##يك
گرگوری
##ترینگ
انتخابیهٔ
مثلا
کاستیا
پیروانش
فیروزه
شپ
##فلو
سیبیاس
##تمندان
دادهای
##کانت
خطبه
اسپانیاییها
شهرکهای
کومو
متقاطع
الگوریتمها
مکاتبات
پاسارگاد
تیری
هپات
کورک
کنکور
##inc
##اتیکی
۲۲۶
مهاجرین
نیمهشب
همدردی
تِ
قاف
##ئونگ
مجامع
مانت
جنگجو
##کارتی
نمیکن
##مرهٔ
سانچ
ناتان
##سفید
اکسپرس
جغرافیدان
You
دیاز
ایرانیتبار
دستش
آبگرم
مکک
نابین
مجمعالجزایر
qu
عاری
کبری
##الزمان
##ورات
##وته
##ریکه
بستک
هیدرولیک
نیکولاس
بذ
مزه
٢٠
کاران
##رائیل
جمعاً
##اسطهٔ
یونیون
عمداً
Ti
pop
ایوب
ایرباس
احتس
##کوویچ
ورنر
##رائی
نابجایی
تأثیرگذارترین
Rec
تت
##۹۶
بهن
فیصل
محمدشاه
طبس
ناتالیا
مرغوب
پذیرفتن
استادیار
اینچنین
html
چندملیتی
شفق
##ny
راشد
بارنز
خارق
رودسر
مبادلات
اهمیتی
##عر
##ونس
ترزا
جنگجوی
بالتیمور
##tit
جداول
ماشینکاری
دیماه
موتوریزه
هوشیاری
جاج
رونی
شت
مائو
##یها
##hi
##ْر
اوتو
##یدین
##ated
فروم
تئاتری
بحرانهای
جراحات
اسطورهشناسی
چسبیده
پیشتاز
پوک
دربردار
اوکلند
آمون
##فاوی
قیمتهای
مریوان
کُد
هافمن
میریزند
آوایی
تسن
گاب
آنری
توالت
سروان
روزن
آموزگاران
##ولدز
چام
##فصل
موتس
مرئی
کوبی
پرافت
احتساب
##ho
معلو
بنش
ویتنامی
##بیاسدی
آدلاید
نیکاراگوئه
Vo
جوه
گیتی
##پتو
##اموس
فرودگاههای
کاتالوگ
تداعی
ایکسباکس
درسدن
ناسازگار
مستغلات
فینی
پاو
##رزی
##ution
##IT
نامبرده
بنک
آذرم
۲۴۵
پولس
##گفتهٔ
زرند
نبردها
بهدنیا
یوکوه
مومیایی
East
بطور
مگن
##ویسم
نیواور
##بانیت
بنبست
##تبری
##کنندهای
مالایی
##کشها
امینم
آلومینیومی
سوارکار
عبدالحمید
یغ
##ازمان
تراب
ریج
تکانه
بدنهٔ
کودکانی
عینک
تفنگدار
پرخاش
اهریمن
1px
sur
لینگ
##OL
##OM
##سیای
دیور
سلتی
افزایشی
سختگیرانه
میدیدند
لعاب
دُ
شفا
عاق
قاسمی
##طینه
##ارزش
افشین
آبله
سوزی
حمایتهای
رادیواکتیو
جادوگری
دغدغ
پاند
برخورداری
طلبی
تامسون
کارخانهها
##پوریشن
دریاسالار
عالیرتبه
class
ne
جامی
خاز
عایش
گلیم
##وریم
باگ
##وباک
ریپ
سناری
تحتال
جیج
آهکی
آکر
##54
المع
گرفتگی
جولیان
کیبورد
بخاری
فوربز
مونیکا
ناسیونالیسم
نجیبزاده
لطیف
كار
بیسم
دوحه
نقلی
آرگ
ملان
##ald
۳۴۰
فاصلهای
عذاب
تسلیحاتی
map
علو
گوئ
گامهای
##۳۸
##خری
توبا
ایچ
##درمانی
##وکین
توانبخشی
گوشههای
فوتبالی
وایلد
سرازیر
هوری
##اژی
##pe
##خراش
##80
اماس
سپاس
تکموت
درامر
شبکهها
بلندپایه
جدولهای
۱۸۵۱
ملتها
خشایارش
رکس
بارو
سلسیوس
اکست
اوربیت
منصوری
درمانگاه
مثلثی
امیرحسین
تدبیر
گفتگوهای
کتیبهای
پیشکسوت
ژولیوس
AF
RNA
واتس
السالو
استفادههای
##ازیا
تیمهایی
آرنا
یوگا
حیفا
بیمارانی
کرتاسه
ترانسفورماتور
System
im
دونت
عطفی
##بوش
مساعد
آتشین
کینگز
قاتلان
استنتاج
امپدانس
Dep
هاله
##۴۴
شهربانی
ارابه
جیب
آقاخان
دانشیار
باینری
نِ
##حون
تره
گسترهٔ
کالیفرنیای
مبحث
فیلیپینی
۱۸۵۳
##ject
جایزهای
معلولیت
##ینگی
استیک
بروسیا
الاه
چشمها
##وسنتز
60
بجای
حیرت
گنجی
باسک
جمادی
##درن
متنهای
ضرایب
رقصهای
##نشینان
۱۸۴۷
##قص
##سبرگ
باست
آنو
##اریس
تنور
آنجلو
۱۳۰۹
بیضوی
کاتالان
مسیریابی
یوکوهاما
بگذاری
ببند
بهادر
##گیو
پسماند
##مینستر
کیومرث
خیار
۲۱۸
عبوری
ناقوس
مدیترانهای
ظرافت
##ces
##آلو
##سیلهای
مشیر
زمینلرز
محمودی
تحلیلگران
رکورددار
۳۷۰
فراماسون
تکموتوره
sub
##۷۶
میترا
انبیسی
مهیا
کروناویروس
زاکسن
گرامر
##فیلم
##وهیدرات
SI
val
لش
روال
بدعت
بالاست
##انکوه
مستعمر
##ele
حاجیآباد
ساعتی
مجلل
بث
باتو
برایتون
##کیس
##مینه
##دراز
##فیان
نخبه
رایانهها
گریخته
کارفرمای
قذافی
Lake
Net
زاهدی
ترکستان
آسیبی
عبدالملک
کاندیدا
##der
تناو
کورپوریشن
ناتینگهام
##قلیخان
دروازهٔ
انزوا
ناخوشایند
b3
##ling
نیستم
پسانداز
##عهدی
بالها
کیاستی
سیناپ
کوزه
نامرئی
غیاث
3em
رال
قضی
چیک
چاقی
بهگفتهٔ
سرآغاز
##رمنی
فارابی
جداگانهای
میگذشت
لیبرالیسم
دوردست
جات
##بسته
##۹۸
##غری
##ندورف
میم
کشتگان
ضربهای
هیدروکسی
##iver
باتریهای
وورتمبرگ
هایت
##یاد
##och
تجارب
##نوف
دنیایی
##بابک
رستگاری
میافتند
غولپیکر
ییلاق
سمیت
انو
تلمود
نویسه
وارداتی
متناقض
خوشح
ماتریکس
واسیلی
اسراییل
SM
عیل
همکلا
اوا
سنتور
شهد
اتاقها
ضربال
معادلهٔ
درازا
خرابکاری
ژاندارمری
گوگنهایم
##fer
##arg
تورو
##isp
اتفاقاتی
سرکه
##فلزی
جانشینان
واریانس
مکالمه
43
Je
خا
استرا
براه
##اخانه
مهتاب
هوپ
نیمرسان
##انگیزی
بولتون
پابلو
پرافتخار
Mor
الط
اصلاحی
##موده
##کردها
فارم
##کلین
نتانی
کاریک
بیتالم
کارآفرینی
##فعل
محدودیتهایی
لاکهید
رساندهاست
پابرجا
پوزی
##باشند
##ca
گرهها
شربت
##چیو
قابوس
آییننامه
وفور
فواید
تبعیدی
1997
دیمیتری
حاشیهٔ
بلشویکها
پروداکشنز
ماقبل
##نث
##late
##وبات
کلهر
افغانها
پالم
حائری
درباریان
فاستر
چیل
کثر
اینبار
مرشد
##ونیکی
گواد
پژوهشکده
آنتاگ
بیاعت
اختراعات
نئوک
رونالدو
طرابلس
size
فنجان
کست
##تسه
شهربابک
مدخل
مروان
##واچ
کوال
ناوش
۲۹۰
لغوی
الکساندرا
بیگناه
نتانیاهو
کپل
شکافت
##elf
کاله
سفره
تسلا
۴۸۰
تیتر
فیتز
لیتی
##66
##زیکی
##ترون
سوگیری
##osa
عاملان
دویدن
آنتیوخوس
غاز
افکن
پاپوآ
توضیحی
گچساران
یاختههای
شویم
هژ
هلا
کاکا
روتر
اسلاوی
##اکولا
کوکو
##پیان
اسبق
مطلوبیت
ییلاقی
##َند
##۴۸
فرآور
گرانده
شمایل
بلع
گلوت
مستطیلی
جلوتر
کومیتاس
۱۳۰۶
فاشیستی
دائرةالمعارف
Cent
HIV
رقیق
عجم
لادن
##یتسو
متا
دانگ
مانوی
آران
کوهدشت
##ets
##انگا
حسنآباد
نابینا
میکروسکوپی
Wil
ودر
##خونی
##ایاما
##ارق
##اتوس
فیلترهای
عنوانهای
##الدو
عنایت
۱۸۱۵
۱۲۹۹
محضر
اسکریپت
CR
پنانگ
۸۵۰
##FF
##کلیف
پانچ
متفر
نخورده
کیلووات
انتقالات
محصولی
شانزدهمین
بیتالمقدس
سادهای
ژیل
##ادلی
متکل
اتکا
نویسندهای
ابزارهایی
دمکراتیک
Des
سست
وِ
کنگی
##َة
اتانول
##شدهاست
ولایتی
اورنج
سیاهچاله
##خواهانه
جرقه
۱۸۴۶
سوادکوه
ايران
Jan
قریش
آنتیب
##وریسم
##انسن
کلانتری
پلین
استرلینگ
روانشناسان
خاتم
Minnes
##قرم
##روا
##اسطه
دادخواست
گویشی
آیداهو
عطا
معشوقه
زوایای
تپور
باواری
اوش
##لاسیک
اسلاو
شمالغربی
آهنگری
روانپزشک
آوازهای
نیترات
Comm
وایمار
Minnesota
Sal
زمز
##AX
همشهری
رواق
پرندهای
##موج
شبکیه
مموریال
پیرانشهر
##ولیتن
رضوان
ریشهها
گئورگی
بااینحال
نیواورلئان
آدن
گانه
##۳۲
##توز
امسال
##وردن
زندیه
لوین
زخمهای
زوجهای
ندارم
یانو
##ail
##وتید
دارت
چهارگانه
مارینا
سوئز
فتنه
اتاقک
اسبهای
عباسآباد
خوشبخت
بیثباتی
نیوهمپ
عایشه
آستر
##ضلی
##وبرد
خطری
تالکین
##rad
بازداشتگاه
عرشه
ندادند
ناحیههای
خاخ
غزنی
واق
##گوچی
نیازمندی
مؤمن
شخصیتهایی
کوتاهترین
اصلاحطلب
کلاوس
سروتونین
دانستهاست
مسجدی
آبه
رفیق
##قاق
امدادی
بیکار
دوسال
تاریخهای
والری
صنعتگران
مناسبات
##یدرضا
صرفهجویی
مضاعف
خشایارشا
##هاي
قطری
خوانساری
گونگ
تخفیف
##ital
۲۲۸
خواستگاری
تماسهای
سونات
ترینیداد
ذوالفق
نوآورانه
##تسا
همتا
سرآب
اشلی
##tiv
اردک
سائوپ
استراسبورگ
Ass
right
کوثر
کوارتز
محمدخان
۱۸۴۴
ادواردز
نشنال
##ym
##نگه
کتابت
سنگفر
صداقت
شمارههای
گناباد
لائوس
المپیا
دپورتیوو
مندر
کباب
##سنه
سرورهای
مرودشت
گلاب
پیرمرد
هزارهٔ
##tis
روحانیان
اکسباکس
ادوات
خمیده
##مونیک
##آو
بهدر
آنگونه
نشأت
۲۶۵
مزین
اسکارلت
زنگنه
NP
هضم
##زمانی
##ja
معطر
کوارک
گروهبندی
سایرین
استرآباد
کورههای
خوابگاه
##یافتگان
سینماها
کاریکاتور
فلاح
چیس
یات
##گسی
##ba
##by
##33
##هاوزن
تاق
نمادها
بوئین
ورن
تفاوتهایی
۱۷۸۹
مرعشی
چیرگی
July
Cont
aaa
پولیت
گشاد
برام
کماکان
اتابک
##ella
مقدسی
سریعاً
کربوهیدرات
اونی
رعد
مهسا
گلدار
##ret
پایهگذار
جلسهٔ
میآوردند
آلومین
ریمیکس
فئودالی
خادم
مقننه
نپ
##فرید
##ایدی
اوچ
اجدادی
بلبل
##وپا
وکلا
۱۳۰۸
1990
سپهسالار
افراسیاب
زری
یوهانس
##ii
متصدی
##ریکا
کنک
کلبه
کلیک
کلاسها
متخصصین
فندق
it
mark
##لمن
کهکشانی
##هرنگ
مرفه
##مسار
صحران
۲۲۷
۲۷۵
۳۶۵
آریل
دوپینگ
تاشکند
السالوادور
Bi
هوه
سالر
نویسندگانی
##نوو
پلکان
رایدهندگان
گیلانی
بغدادی
لبخند
شگفتی
مقتدر
نیابت
میلتون
باشگاهها
کلاته
بلاد
سبکتر
نیمروز
اورنگ
رومل
نظریهای
استعمال
تفکرات
کنشگر
خامه
صفا
##لار
##الکتریک
##اسک
نوئل
حسگرهای
محدب
تیراژ
کابوس
ونوس
آراگون
لکههای
##uss
##جرد
گرایان
دهانی
هرمی
اشاع
کوست
کاهن
مطالبات
فهرستهای
کنسرسیوم
عاقبت
##ندرا
##لیش
عمقی
انگار
۱۶۲
شیراک
لیگهای
یوجین
##پلاسم
چیپ
##ccff
هویدا
بلیز
غیرداستانی
نمیدانند
مجرمان
b3ccff
تود
##جری
سرامی
کشاند
دعوا
متمادی
تکهتکه
##سوز
درنظر
میسون
دیبا
عمار
##ونتری
اصلاحطلبان
لغات
ماجرایی
لوییس
فراهانی
حسابرسی
جالبی
زیل
صابون
کوله
##اندار
سفینه
ابرو
افتادهاست
تألیفات
آستانهٔ
جودوکار
عسکری
هرا
کیمی
شهرکرد
ساختهاند
واحدها
جاوید
۱۳۰۵
باتیستا
آذرماه
Gl
بتی
##فههای
##آلی
##حاک
همسو
سیان
رامسر
کثرت
آواره
لارو
نکش
مقعد
##اپارت
ریف
اروپاییان
فلسطینیان
آنتیبادی
حراج
پینگ
##64
راویان
امویان
##مسازی
آلکسی
ورسای
متنباز
رینولدز
سائوپائولو
Di
دومش
ستونی
عنبر
##گلوبین
آخرالزمان
طوریکه
سرمربیگری
محرکهای
پرتغالیها
غایب
اغتش
دعای
گذاشتهاند
چرمی
نوجوانانه
القای
پیکره
ببری
سیتو
##wa
##VD
سازش
۱۶۱
ژانیرو
ساچ
ابوعلی
زیرمجموعههای
##ongress
گهگاه
##گات
##فتح
کرانههای
فیث
نگاران
##گانیسم
پوزه
کارگزاران
ژنراتور
تاه
عکا
نَ
گوک
کلیت
مهربانی
آشیک
منافذ
em
قاش
##line
کرمهای
شیبانی
عروسکی
مقطعی
دربرگیرنده
قائممق
بهمعنی
وخامت
زیربنای
EP
آفر
عزم
##پره
مرض
##بانوی
کلمنت
بدنام
اجتماعات
رقمی
آمارهای
مؤنث
مالکوم
شورشها
۱۳۱۱
۱۸۳۷
##ِرِ
تخلفات
پینوشت
سکنی
##صره
بازمان
برگشته
علیاص
##وفیل
هفدهمین
اهرم
خلوص
Vol
وث
امال
دستنویس
##انگه
سیمهای
ریچموند
قطبهای
امپریالیسم
جاوی
زبیر
وولف
##۳۷
توخالی
دانوب
##rit
برخط
مرتباً
شدیدتر
##ows
کنندههای
مهدوی
گرایانه
بشق
ضیافت
طویل
بهایی
##فتند
خودمان
تائ
##دیان
دهانهٔ
جدیدش
پادکست
##سازهای
فهرستِ
میداده
دینامیکی
واژهشناسی
پدیدآورد
صبحانه
تظاهر
##ska
اطرافیان
پاگ
##ولهٔ
اوتر
ایپ
##وئو
لیبل
وارونه
نمایشنامهٔ
ترینیتی
##محمدی
انهدام
ساندر
فسا
ایگل
بدانیم
پلاسم
تختی
حاملگی
مجذوب
Er
چری
##نور
##ner
##۴۶
بابر
همپ
فرسوده
##رکه
##ودیو
گلابی
##نتون
##tip
واژگانی
برگزیدهٔ
موشها
آشیکاگا
##زبری
بیوت
باربری
##اوال
گذرا
جوادی
آبادانی
دوپامین
اسکیتباز
##لسک
اکبری
نفیس
عاملهای
ماتئو
##0000
شمشیربازی
کاکس
##ee
##رکی
جمل
ترن
بریتانی
الگوریتمی
آژاکس
صحنههایی
المپیاد
AM
data
بنین
##آرو
گراز
مجنون
بوکا
بازل
خواج
بنه
##زدگی
پوستان
ارزشها
گرانادا
2020
دانیال
بگو
دودی
شیره
غزلی
##برون
مهلت
سازندگی
حمیدرضا
میگیریم
اردبیلی
رومئو
پوچ
محبوس
آفتابی
ab
log
po
رویس
فست
رائول
موعود
##کنندهها
##els
فقرا
##ask
فرزندانشان
گربهها
اسماعیلیان
Kar
TV
جلی
الام
هدای
آنزیمی
جابر
عابر
##21
##ةال
بهمدت
##الحه
ایگور
ویکتوری
علفی
قبله
ناخن
بندیکت
انبوهی
تابلوهای
aged
غربالگری
65
یز
##ــ
##ورکس
سال۱۹
نمناک
رویت
رئالیسم
هدفی
پارگی
پراش
۱۸۵۲
صاحبن
لامپهای
گمنام
##سلا
##وفن
کافر
لشکرهای
موقتاً
##الاول
بلندیهای
Georg
غشاء
blank
##ضایی
##انتی
درنهایت
کارکردهای
ریچی
برگه
##its
تابشی
مفرد
آلترناتیو
Mw
داند
ربط
هیتی
پالت
##پرا
##نیوم
##نیوس
##اختر
کلونی
سنترال
توانا
نمایشنامهای
همکلاسی
Leg
ژور
کفت
روتور
هیئ
##مپور
اندیشمندان
تپهٔ
رؤیایی
میثاق
بستند
دسر
گینس
##دیر
##ارث
آناند
فره
شهرتی
۱۵۱
هیچکاک
##irst
۱۳۱۹
##چنکو
زائران
فلوئور
فومن
##۴۷
##ومینگ
نیجر
الاسلام
تشابه
فامیل
##۹۷
مخمر
دلفان
تومورهای
لباسها
دهلیز
دوشس
هیمالیا
بازمیگردند
بورکینافاسوی
گیبسون
بعدازظهر
Ver
لَ
##let
##EN
##یاسی
کلاد
##ora
لحیم
نیروهایی
آتال
بریج
##زوفر
color
صندوقهای
مصدوم
سوگواری
##اتون
##ازار
یاک
چندوجهی
سنقر
ملّی
ماراتن
سیمپ
ژانرهای
اتوماسیون
آدمربایی
دیافرا
لنفوسی
یکهشتم
کلکسیون
WW
##زودی
##esh
موزام
##اسیس
کانن
کوچولو
پسرانه
۳۲۵
گرانبها
##ونیاک
گمانهزنی
تملک
##حور
توأ
##گیرندهٔ
ورزید
پارادو
لوگوی
مثالهای
هواپیمابر
فسخ
وُ
##ونیکا
کوخ
دنا
##ونتا
رودکی
تریلیون
mar
کامبر
اعلی
ماهان
مکانیزه
پرجمعیتترین
غنیمت
Rev
زندهٔ
عجای
لد
##34
##kra
نیامد
##alk
دستورات
منصفانه
فلسطینیها
Province
پروردگار
گلولههای
اختلاط
۲۱۳
موتورها
باغبانی
دریاچهها
۱۸۴۵
خاقان
Ni
۶خانوار
##مردی
##QL
##صاد
##روبی
دلتای
کیانی
باغداری
کارآزمایی
آندرس
Gr
##گامی
##هارت
##حض
توانی
نیومن
دادم
نشانگان
راهبر
تریپ
تراشیده
##العادهای
۱۸۳۶
۱۸۳۹
۱۸۱۴
لولهای
برگزیدند
جادوگران
سرنشینان
بخو
##وردگی
شروان
محمدجواد
گیاهانی
یادداشتی
##bert
هادر
گوز
یاهو
##US
ادوین
گیومری
حوزوی
##سکایا
مفیدی
۱۸۲۸
متداولترین
سجاد
تاسمانی
برافرا
Bro
بگری
ضحاک
یوریت
تاخیر
افغانی
الیگود
پیمانکار
متفکران
زاینده
لیمو
ریاضیدانان
ساتراپ
موتسارت
##يس
##GA
المان
مثانه
گفتگویی
پلانک
فصلنامه
کمیساری
جشنها
افغانستانی
ویلن
سلاحها
متروپولیتن
چاشنی
Lo
congress
el
ساید
شتا
هومر
##حام
پیس
الرح
تسلیت
سایتها
گوشتخوار
اسکلتی
لاهه
ولید
##irc
گرت
تلآ
رسالهای
سوشی
تعریفی
کاتد
وحشیانه
IN
ذین
غمان
ندید
کهریز
##روض
##کنها
الوند
تماسی
کازینو
خلاصهٔ
ژرمنی
##ورزی
##اسین
النا
اجت
مدالآوران
##علیخان
محیطزیست
محورهای
عبادی
نمیرود
تلآویو
Fre
pre
صمد
نینا
پم
##گوت
کارشان
شهره
هیج
گردآور
سورین
اریکسون
Hill
ثلا
##65
یکتا
کارگروه
قرنیه
نمین
کیسی
پدرخوانده
نسخهها
هیئتهای
مطلبی
ربکا
کویینز
آلپاین
سلیمانیه
archive
PH
سولو
##وتوس
واقعگرایی
بازپرداخت
اتین
سازهها
آسیبشناسی
طلاب
ابریشمی
نوترون
Ber
جرائ
خنج
مازی
اسنو
دارک
عصبانیت
زردآلو
لنفاوی
شامگاه
تنشها
Ang
همتایان
یعقوبی
یارانش
Ha
کچ
محاور
جهتی
افعال
گذاران
افتد
دومینیک
بدنبال
اروپاییها
سمبل
کارآموزی
زمستانهای
##tics
آرمانهای
Ret
##DS
فیش
پدرشان
##چیزی
مالاریا
2023
آونگ
##کیر
##الای
بلر
رفتارها
هارپر
کنسولی
نوشیدنیهای
نمیدانست
ارغوانی
آمادئوس
زینت
شید
پپت
##یتد
مسعودی
بوخ
##منظ
سازها
سوغ
قلههای
زمینهساز
ماکو
۱۳۰۲
همدلی
عبدالرحمان
قورباغ
پارادوکس
چول
بههم
متصرف
آلتو
مصونیت
##ali
جیانگ
طلبان
۱۳۰۳
کاووس
آفریده
ازبکی
congressional
تویس
یس
##29
بهشهر
پیزا
بیای
آلوار
مانیتور
مورف
کالیبر
آسترا
یورگن
##رکننده
میبندد
##kin
نیشکر
مسند
دیست
فردای
195
بانکوک
۱۸۳۱
قارهٔ
اسماعیلیه
تناوبی
اجتهاد
Pi
Ter
ed
بشن
خمین
واله
##صدر
##نگا
پرهزینه
بداهه
##التون
##نته
ولگا
شکستهای
تیرباران
استانداردسازی
ادیسون
آدمکش
چوپان
آروم
سیمی
ضده
لیما
##صدا
درمیان
دهقانی
مقوله
مطلوبی
هایک
##ماء
هدفش
ستارهشناس
۱۸۴۲
اشعارش
الاهلی
گوریو
یشت
##اهنگی
##lag
نیکسون
سیلیس
ممفیس
##ative
##تقارن
##lect
نیویور
سوزوکی
def
آنتیژن
متروک
سوسن
موزامبیک
گلا
##گنج
##لیوم
سالانهٔ
تعزیه
اسپانیای
مشارکتهای
نارگیل
واکسین
2007
هرکس
لغتنامه
آویخته
سپردند
##جونگ
##ایاتی
بناپارت
خوانین
ارتشبد
پشتکوه
سعیدی
time
ایندیپند
سغد
شگر
##َش
##work
بیورن
مجه
##ria
مشروب
زدهاند
پرچمهای
۱۸۴۱
ضمناً
سنجاب
##ough
##adding
TCP
up
##bin
##زنده
برگر
سرزمینها
تازهکار
مارتینز
Inter
فایده
تجمعات
علیاصغر
عجایب
War
رعیت
##قهای
##ساعت
##ni
نقدها
##وئین
##نتینا
64
زاید
دراگون
##منه
##ابیان
هفتهای
##جمند
سوربن
ارمنیهای
تریل
مریدان
1996
درخشانی
کنسولهای
تیسفون
آناهیتا
بامو
متز
نامههایی
اجاق
##ملین
زمانها
ویرانههای
۲۴۶
وانمود
##روتئین
AN
##EL
توب
فروری
بیکن
کنایه
##اکوف
مارکت
پنجابی
توصیههای
دندانها
مهارکننده
مگاپ
رستورانها
ناهنجاری
۷خانوار
##فک
اینصورت
نگاره
رادیوی
ساراگ
۴۴۰
##ights
آشتیانی
منظومهٔ
##۸۸
دههها
##وکراسی
صداها
کاتب
نفوذی
بادگیر
اندازهگیریهای
ساندویچ
حشرهخوار
فرورفتگی
تریک
ساگ
کایل
##وتسو
معز
چهارد
موفقیتی
قرنطینه
گنب
##ste
ویرانگر
رستورانهای
فدایی
بوسیلهٔ
میگوییم
Fall
زایش
میور
آمونیاک
ایگن
اسام
##مداری
جنگیدند
ممالک
اسپیل
۱۷۲
بررسیها
۲۲۲
۲۲۱
سیلو
استعدادی
یوکاری
شعلهور
خیا
شاند
کارم
##اسیک
اوتار
جیپ
روانکاوی
##ماندو
آیاواس
دوبارهٔ
##منظوره
CB
زایی
##cer
مانعی
تفصیل
تراکنش
۱۸۴۳
۱۸۱۳
API
میکوشد
پارینهسنگی
##ساید
##فوذ
##۵۶
##EP
همنام
موها
قرضه
دارن
بدب
دورهها
سینوس
اندیش
عبدی
کاتولیکهای
نوآوریهای
حیدریه
غضروف
لیتیوم
48
Aut
خدی
##ُس
بروی
بعلاوه
##انتز
عصاره
کریستن
پرسشهای
یوحنا
##ِنا
##تیها
اسلا
مکدون
تصویرگری
تزریقی
کمیساریای
NH
آصف
##RP
بلش
بیران
نورپردازی
##ولوشن
ابررسان
##urus
رزمن
سوزنی
دالان
ولفگانگ
Dam
تیا
عریض
فامی
ناج
##air
##field
##CS
##اسکی
ادریس
کلد
##داون
جمهوریهای
ساختارها
تایرا
اسفنجی
هیرمند
چالشها
برنتفورد
آیتی
مودی
##ón
##ستروم
شدهترین
اسبی
کشک
همراهانش
##نهایم
صداوسی
۴۳۰
تروا
گودریان
اسکیزوفر
حبیبی
گچبری
اورتن
دوجنسگرا
مونترآل
بویز
مخصوصی
ناع
کاور
##نیو
مدور
##پیشین
کانر
رئوس
بانکدار
بافتها
شارون
پنجاهمین
ساوتهمپتون
عالمان
##مکعب
یوشینوبو
الیگودرز
May
##تراش
موع
##وتروپ
##یکاری
مالیه
دعوی
فازهای
تروریست
تپان
۱۸۲۱
قالیباف
اغتشاش
OH
##سکه
##یدس
##اسلامی
دوسل
کرمی
##گانا
عمه
تلخی
سکون
وایومینگ
جنینی
بوفالو
هولو
##زوم
مویر
خوانش
۲۲۳
چاپلین
ابوطالب
موزهها
دمکرات
استخوانها
Ins
آراگ
کازان
##وکاوا
عطار
مافیای
padding
زک
غور
ملاک
گوب
۸۰۰۰
##رونی
##طاط
ازین
باکره
الاستیک
پیشوا
هنریک
ورزی
کسل
شیردهی
موریت
جدال
عقید
##ury
تئوریهای
سرگیجه
سوند
هگل
##پیل
##جک
بیخان
هنجارهای
بارتل
غیرت
۲۳۶
۱۸۱۰
left
لیاقت
##زندگین
55
بونی
عاص
##ps
##ira
##ese
اوبلاست
زیرو
محمدآباد
انتشاراتی
اردکان
اشتب
دیدهاند
نقاطی
پراکنش
قناری
دستاند
زبانه
##چیک
##ورون
انگلیسیتبار
بیله
علاقهاش
کیهانشناسی
قریبال
متخلخل
تمرینی
pH
قضای
لکی
##ius
توبی
ایثار
کارنگی
شورایی
اسپیس
لوای
حرمس
صباح
لیبرتی
کاترینا
##وایان
روبین
افندی
۱۷۱
۲۱۱
درسهای
فاری
##حهای
اینباره
منکر
روبات
قطرات
حکوم
مستندسازی
نوزدهمین
بهبهانی
معالجه
پافشاری
خسروی
mon
ذهاب
۷۰۰۰
آرتی
آرمن
سلماس
دخانی
سرودهای
کاستل
همجنسگرای
بلکبرن
کراکوف
ورقهای
ناهنجاریهای
ناهموار
گالات
آبسنگ
اثرگذاری
۲۴۷
خلخال
۱۸۳۵
##ava
بازخوردها
تاجیکی
##ks
##ورای
اوستی
باربی
کوارت
ولیعصر
##ican
رادیک
ویروسهای
49
زیدی
عدل
##ونیم
احیاء
نمیگذ
کوهپایه
پلیم
کالری
امرار
دبیری
مودنا
حاشیهای
تزیینات
دوقلوی
بطوریکه
دونتسک
Arch
بفروشد
تغ
حرا
ملو
نانت
هاج
##امال
##یسا
گلبرگ
ابرها
دوستداران
جوراب
خالکوبی
جاسازی
آژانسهای
۱۷۷۶
رباتها
مانیفست
وراثت
مینیسریال
کوند
##وِ
##کاو
##out
##ومیش
آغشته
شدنش
فیجی
نمودارهای
نورونهای
ساعتها
درواقع
موشکها
خوارج
لارستان
نن
کلون
بارن
##پرده
۲۱۲
وزرا
۳۰۵
##عارف
تکنیکها
اکسایش
سنجاق
سراوان
هپاتیت
نیوهمپشایر
زاهد
##کمان
##وسفر
هیلی
آرمانی
یوسی
باغوحش
هارمونیک
اسنادی
اریتره
راهکارهای
تونگ
##حاد
محارم
یائ
کرانهٔ
لیستی
##ular
##ورشیدی
شوارت
فولادهای
##بروک
Char
پرتابگر
مغناطیس
ناهار
کاردانی
شاگردانش
DB
IR
بوب
##ضعف
##روئن
تراس
##واژه
##ولیا
سنگنوشته
تورینو
۲۵۸
۱۸۳۲
خزنده
بوسه
محرکه
خوشنویسان
بهمئی
معافیت
Ukra
ساتس
گتو
یوبی
##داده
##ан
ایشت
دورگه
آلون
پرستون
ایمپل
##umber
ناشنو
حادثهای
استثمار
زیرساختها
عالیترین
فلاندری
حومهٔ
مقارن
آراسته
شاخهها
##لینا
سموم
قفقازی
فرناندز
بگویم
وجدان
ناسازگاری
بجنگ
##ودای
همینگ
بینتی
##ائوس
حمص
راهح
سیارکها
جاوه
گستردهتری
##ader
فیزیولوژیکی
ویدئوهای
مقصدهای
بخواهیم
city
صافی
##خوا
سوال
مثابه
گفتنی
جاییکه
ناتالی
۱۸۰۶
اشتباهی
قریبالوقوع
53
درین
همبند
نمایید
پدرم
ایوانز
پنجرهها
لالیگا
همجوشی
وانت
یاسر
##استرو
##اسدی
زیرگروه
کلئوپ
بلایای
شاهر
ماریجوان
ستارهشناسی
داراییها
۱۸۰۴
بکارگیری
میزیسته
ساراگوسا
صدار
##ْن
استاین
##هرود
##میع
مرند
التم
تصمیمی
امکاناتی
مفاهیمی
عبدالق
مقدمهٔ
آتنا
##tical
لمسی
معلمی
گمرکی
ملخپیشین
ووک
##یون
##burg
##گرسیو
موتی
ایلیا
محول
نامتقارن
##۰۰۱
##کرز
##ita
کفشهای
##uke
اسپهبد
ایلخانان
بکن
خائن
##ras
##ua
##جیر
##لیسی
بارور
میرفته
##ange
درآید
##oma
امنای
ماریون
مجسمهها
مهرهداران
مسالمتآمیز
بگوییم
غفاری
هایل
چاله
##دیل
##ینگو
استوری
##سیونی
مصالحه
پنجگانه
ارتفاعی
تصویرگر
بورو
هیدرولیکی
جادوی
PP
جامه
باکی
پیشوای
کوار
##atic
سامانهها
حرکتهای
اشتر
۲۳۷
تفاوتها
کریستف
##ماهه
درخشندگی
کارتونی
تلوگو
80
AB
Red
آپا
کینز
##CH
درگز
برشا
##افون
دارکوب
نشیمن
2003
اصلاحاتی
باندهای
بدرفت
ستیز
وخیم
ضدهوایی
Cas
Pers
Wind
بویژه
##کایی
##المی
##یلهای
سالاری
کربل
دانشسرای
نزولی
روششناسی
##وپول
خلیلی
پائول
محاکم
صندلیهای
مفتخر
سیامک
RED
لپت
چله
استیت
مهری
فعلاً
داشتهباشد
سکایی
##فلت
نگارگری
گروگانگیری
Temp
وارت
##۹۳
روه
امپرسی
اتاب
بالابر
##ابیش
مشخصههای
##ington
متالور
کریمخان
تعلیمات
دوسلدورف
46
ظفر
نال
##ci
آمر
پرآب
کلیر
گذشتهٔ
ریسمان
2022
ذاتاً
تدارکاتی
زب
لونا
کرام
کووال
قطارهای
##انگاری
بحبو
نرمافزارها
قارچی
بیهوده
باخبر
چندآهنگه
واکسیناسیون
High
اورد
صعودی
چستر
##of
##85
##وروس
خودزندگین
سرفه
هرساله
##ائر
##واران
ترکیهای
##ئیان
زیستشناس
ملکشاه
۱۸۳۸
لولهکشی
بازگردند
فیبرهای
یدالله
دیافراگم
RS
du
ساطع
شنگ
##حساب
##ارود
##ینما
##اسبی
توکلی
فلمینگ
پارسا
مثالها
مشروبات
کوبایی
کوانتوم
انبارهای
لقاح
هوافضای
برمیدارد
دیری
سي
برانگیز
فیلمبرداران
تازی
سکونتگاههای
تمساح
مشایخ
وسواس
Up
بویل
ژائو
راهبه
حرمت
پورشه
۴۱۰
دشوارتر
گناهان
روشنفکری
هادسون
لکس
مکران
##ساختی
##خن
دیوانی
جایگاههای
##وبیشی
۲۶۶
قتلها
سرمایهگذاریهای
##ریزاسیون
##عبدالله
Bu
over
بانه
##ضوی
##án
میلز
کمبل
دلق
۲۴۸
سیلاب
راهیابی
نیترو
۱۸۰۱
مؤلفههای
راندمان
هجدهمین
وودی
چرو
ژیر
##rac
الین
الشع
استفانی
فعالانه
2006
نظریهپردازان
بابکان
اشکالات
سوختی
2005
رولز
2021
United
اشخاصی
CO2
بوردو
وشم
##۴۲
بهسر
استفن
بدمین
بلخی
خوشههای
رومیزی
نرخهای
##ther
1991
پولیتزر
اسکیزوفرنی
دیزلی
##وبار
##داغ
شهریاری
رشتهکو
مهرگان
آنزیمها
اعمالی
نارنجک
بدمینتون
Pap
Tra
##گومری
##صورتی
##لیث
کمپر
تشکل
##lement
ناطق
سیلویا
سروکار
دونات
Su
جاو
١٣
پشه
دردهای
کارلی
##سمیت
سورن
کارآموز
سولفید
شایعاتی
میزیستند
هیولایی
میتسوبیشی
عبیدالله
German
SO
ساعد
شائ
ضو
گارا
##oft
##استان
##بیام
یاغی
نقشها
اندیم
فروهر
پذیرد
جغد
متوسل
ظرفیتهای
رویدادهایی
هیلاری
کلانشهری
hay
کک
##قال
همپیم
##بیوس
مسخره
##بالا
بوجود
##پیش
##نامهاش
پارچهای
2001
اصلاحیه
حلهای
آلیاژی
##azg
شیلات
ساتسوما
##ریج
سالاد
اوق
سرآش
الوه
ادا
بازآفرینی
شیرهای
##oper
متنفر
مزدا
تبلیغی
##جعفر
رامبل
موزون
کرکس
Techn
Black
جرائم
بینتیجه
trans
سکان
وینگ
##تأ
##شیا
##اسکو
نشاط
لیبرت
رقاص
میدانم
##tim
پوسید
دادگاهها
لیتو
باقیماند
۴۶۰
سفیران
##ridge
فراماسونری
سیمپسون
ایمپلنت
بتل
جینگ
پوه
ژولیت
یارد
۵۲۰
##րա
##ویدی
کوپه
۲۱۹
کورس
گیرندهٔ
دفترچه
ویرایشگر
دستورالعملها
کلمبی
منسوجات
آقامحمدخان
کمبوجیه
##75
##گرانه
##کنشهای
ایسل
توسل
نقشهها
مدرنیته
ثروتمندان
گرانیت
وستفال
سونامی
ویسکوز
حبوبات
90
بزه
شهرنشینی
هنرها
شوشتری
گیاهخوار
سرودههای
لاغر
##abel
رژیمهای
فیروزکوه
آئورت
سیلیسیم
خاطرهنویسان
برهنگی
موشهای
بیگل
گلشن
قضائی
اسپرت
پیتزا
ماهوارههای
ماکسول
افشاگری
واداشت
مفرغ
Depart
ژاله
##zo
یکباره
هراز
##اخوری
رویترز
##ona
کوکت
آفات
۲۸۵
یافتهها
کرومات
وینستون
سرکش
معتاد
کهنسال
هوشمندانه
کشتیگیران
غمگین
عیوب
صحرانوردی
توشی
امثال
مانکن
##پرستانه
##aria
مستی
طرحریزی
میکروار
گرافیت
بویایی
جویبار
فرازمینی
رشیدی
دیتالیا
لجستیک
رزمناو
Cro
not
op
سوه
##وساک
##اخو
##وئیل
هنجار
آلمانها
تایوانی
ویتوریو
اروین
##وتراپی
پهناور
وعدههای
گوارا
کاتالیزور
بورکینافاسو
تراموا
صدمات
Bre
Ko
هاتس
گارف
اینگ
دیانا
مبنا
سارگ
تنگات
کنسرتو
مواقعی
ضعیفتر
متجاوز
تارت
رامون
##یی
المس
##اسیو
کتابفروشی
مستضعف
پاسگاه
هیدروژنی
چرخههای
گنجاندن
سکوهای
هانیبال
پروفایل
لاب
وسته
استروژن
متخاص
##اپا
انجیلی
هیوم
##دهایم
رودز
##پلین
پوشاندن
رایس
جرالد
شهرداریها
کفایت
لورل
فداکاری
حوضهٔ
ریختشناسی
امامیه
تخلص
نطنز
عقیدتی
دخانیات
CT
Vir
رابی
نغ
وله
گچی
##نار
##۹۱
##کنولوژی
سازمانهایی
نهی
طرحهایی
۲۳۲
سوپرانو
معیاری
هایدگر
فلاسفه
ناوشکن
دفتری
##ودیک
منبر
همگرا
##هرمز
آمفی
جوآن
کانتین
تحصیلکرده
بستنی
لبهٔ
##ife
مینیاتور
مادربزرگش
CM
سسک
واکس
##ware
کارو
سیو
هیث
آغازی
لوون
سیدعلی
##سینا
کروات
##ovo
دگرجنس
رباتهای
رنگر
print
غزنویان
آلفونسو
جال
رسته
فاب
چانه
دیدهاست
قرق
دوروتی
پردهٔ
بازدار
فعالسازی
بلار
هیات
آرگون
هوارد
مترمکعب
جانز
پیرام
##خانگ
کاخهای
مقیاسهای
ابیات
راداری
غزالی
پنداشته
تهدیدهای
ذینفع
##عین
##جون
##۸۷
##ْد
##ستاق
##لیگ
##الیس
##بالت
آلف
##eri
ستود
اوره
۳۵۰۰
دیرتر
گوته
بدهیهای
آشیانه
جیا
هِ
پاویا
##GS
روث
بیرویه
##نتین
##مندانه
ماهیچهای
وینیل
اپتیک
سمندر
عکسهایی
گویای
مداخلات
نائین
تستهای
عج
لاوی
چیده
آمری
جملهای
بیف
دستمز
لیوان
۲۰۲۶
همهگیر
کشتیسازی
سفیدپوستان
##دینگی
هندوها
##رکنندگان
Ukraine
لابر
##انیده
کرات
مجریه
دستکش
##ادرت
همهجانبه
##کاوا
۲۵۴
۲۴۲
پالمر
داروهایی
آنتروپی
جونیورز
لاتینی
ریزشگاه
تروپ
ربودن
برومند
آنطور
آنتورپ
##هروی
مسافری
##شناخت
##اخلاقی
میبود
دلف
پردازی
نورا
##فظی
##نسک
۲۶۲
صرفنظر
قارچهای
محققین
کراچی
بنفیکا
اندیمشک
fl
گاگا
اقامه
##نتیک
اینترتینمنت
##نوازان
ادعاها
وبلا
لباسی
RF
کاوی
##وشن
##شیم
##ذکر
##امدی
اوون
خودت
اسپور
اسپیرز
##نتا
امپراتوران
۲۵۳
مدلینگ
##ico
میانهرو
##book
کارفرما
مزاحم
پشیمان
England
تراجنسیتی
ابطال
رالینز
Dev
شورت
مونه
پریک
##جینگ
نامیب
##زهها
##هنگاری
تعرف
پیامها
صداگذاری
سیرا
مصداق
ساقط
صدیقی
مگی
##ko
تنزل
ترکمنی
نمیخواهد
تیگران
درجهبندی
##aster
سلولز
استدلالهای
قصبهٔ
لفظی
56
آویو
##رنگی
##ریخت
تراست
بازتولید
نشانده
دنس
۲۵۷
۲۴۴
آشویتس
کمیتهای
ملکهٔ
گیلانغرب
سلوکیان
۱۸۱۹
۱۸۲۴
##فروشند
صهیونیسم
نامتناهی
خارقالعاده
قائممقام
GS
Mc
بپیوندند
##ایقی
##ورید
مسینا
معجز
دادههایی
یادمان
ابهر
قطعههای
وینتر
حفرههای
رتبههای
پوزیشن
86
AL
وگ
##آکی
##جربه
براندازی
##بیز
داشتیم
نقدینگی
گروپ
کوشی
چندمنظوره
گردانهای
طیب
۲۴۳
فولام
مونتگومری
ناآرامیهای
اپیدمی
شالی
##32
سالت
بیسو
##اشده
بازدارنده
##جیانگ
کلیهٔ
##سنس
جلفا
##ima
مبادرت
پورن
ترومب
MIT
NO
دَ
مگان
##هون
بردی
آنگل
آمبول
یافا
نوشهر
اربیل
رویههای
آبها
لوچ
هلنا
انتقاداتی
بندرهای
جبهههای
۱۷۷۵
##ودینامیک
نئوکلاسیک
TC
تورت
ستر
##den
##ویوس
ویش
ایرانشناسی
##ربن
##کسن
تمث
مینسک
فعالیتهایش
درخواستی
دعاوی
قیامت
تابستانهای
فشردهسازی
طاقت
مدولاسیون
توأم
مازیار
hayazg
Af
Feb
Rock
سگا
لُ
کز
۷۲۰
##74
اندروز
پیران
کیبیاس
سبکوزن
پاپیروس
خورخه
تازهوارد
بهواسطهٔ
تجربهای
پِ
##IL
##ستوس
##ستاگ
##لاژ
کمابیش
زیور
ورقه
سوف
مکینت
شمالشرقی
۲۳۹
عقلی
خوشش
سایبر
تولدش
دیلمان
چگنی
فریدمن
شمسالدین
گلپایگان
تارک
وکی
##داش
##روزه
مجلد
پایبندی
ریکی
شهود
ایتی
##وکسید
##وفکا
نیازها
موقوف
حدیثی
2002
##ارمونیک
##پریشی
بهزودی
##ویاما
##باله
پیشگیرانه
گلخانه
۲۳۴
رایلی
خلف
آسیبدیده
##ida
۱۸۲۶
فشنگ
نکنید
لبنیات
مفعول
سانچز
app
مانه
بائ
فرزندخواند
۴۰۵
میگذاشتند
آسمانخراش
چریکهای
فرونش
ماریجوانا
Che
Port
خیری
لاما
چدن
##سلاو
##88
کارنات
بیوگرافی
##مسان
الات
##اکین
آذوقه
مسئلهای
۲۲۹
شارپ
زاویههای
تجمعی
فیثاغ
PM
##che
##کود
##ür
##ولاری
غیرمن
دولتآبادی
خارش
محمدمهدی
پستاندار
گهواره
اسعد
دیون
تجارتی
##اگز
قلعهها
فریمن
عدلیه
اکسل
تکنولوژیهای
PR
دث
وزش
##چوبی
##صال
##ستار
منار
##خوابی
مسابقاتی
جوخه
ماچ
پراگرسیو
ماکسیمی
۱۸۱۸
Mount
کلاینت
سالوادور
##IRECT
ترمودینامیکی
هیبریدی
آکی
حصر
چاب
##ازپین
##اسام
نامهایی
میرزای
گروهبان
مسیرها
لهجههای
مایور
بیتهای
تریسی
پیامدها
Inc
مناسک
۱۸۳۴
یارانه
لاینز
میساختند
کاربید
زیرراسته
Hu
air
##رسون
##ولر
##استاتیک
فرهی
گرمسار
مارینو
سیستمهایی
##ript
بیماریزا
نیویورکسیتی
توپوگرافی
نرون
قطبش
کتان
اودسا
۱۸۲۵
چگال
##خدمت
تفتیش
پیشدرآمد
فامیلی
قیس
##ایوو
##لیکا
هموط
نمیم
##til
برخوردهای
##aya
دانشگاهیان
کرسیهای
لوزان
##وسوکه
هوکایدو
Sol
##پد
بهارستان
##ازاده
فرجام
موکول
مدونا
##وشیا
کتابدار
گلوریا
شوال
##ures
پالمیر
هزینهای
۱۸۰۹
غمانگیز
بیرانوند
BS
خشتی
##انژ
بلگورود
##ایلر
reg
ابرهای
۲۶۴
خاموشی
مایلز
همکارش
1992
لنکستر
پهلوانی
نافرمانی
هموگلوبین
سرآشپز
میکروارگانیسم
آبد
ضمانت
هَ
##۶۶
##آموزی
اسنای
مسؤ
##یسانان
انسانیت
حیطه
دربرمی
قوهٔ
لنگه
پرسیده
Point
رفیع
پرافتخارترین
عبدالقادر
Em
جریب
خنجر
رینز
نبات
##ستاین
##کنز
شیفته
##dition
جنوبغربی
ماوس
سیاستی
هفتههای
مهرهها
پورتر
##عفونی
واتفورد
میشناختند
هورمونهای
ناعادل
Bay
جگوار
زون
فنگ
لاستیکی
نولان
##لث
##گروپ
##خیری
فیلمنامهای
موک
امب
##کسازی
کانتر
پارا
پنل
ترانهسرایی
##ریشیا
ارزهای
گالن
اسپارتاک
مکدونالد
ضوابط
SH
##ook
موند
متب
کارمن
##ونیای
میلانی
سیس
احمر
Mid
سورهٔ
دایرکت
آشکارسازی
ترومن
مینشیند
##طره
##են
سهیم
##ائم
مستث
نهال
یونها
مولتی
فرمود
اصولگرایان
تروریستها
ماوراءالنهر
هیئتی
Camp
برید
##تیکر
##کنت
فیلمفیر
نامط
داخله
##omb
مبارزهٔ
پاسخگو
نتهای
نظریهها
بشارت
2025
جانورانی
دوزخ
لاشه
A7
ژئوپ
##ience
##هاج
اوژن
اوّل
##یمر
##بالد
فلاندر
تورس
مالکی
آنجلا
تخمها
لیبرترین
غارها
اسیدها
كند
اوئه
##یاپ
پیانیست
بیشمار
مرب
۲۳۳
گوربا
عکسبرداری
سلیقه
۱۲۹۰
آوازه
پیشکش
حوثیها
پوسیدگی
out
بمل
شغال
پچ
##زهای
##انلو
کمکه
زبانهایی
سولی
مراکشی
بیماریهایی
رواندا
شیبدار
سوپاپ
عبدالرحیم
ناکارآمد
فیورنتینا
تویسرکان
REDIRECT
پوری
کورش
گدار
یسو
##ئونی
باسیل
معابر
مرم
بنیتو
لیث
برگشتی
مارها
اخطار
هیچوقت
۲۴۱
##وپورت
فانتوم
خدیجه
دنگ
##wood
##شتند
فراد
متاس
مانگ
کوستا
بلندگو
کدو
۳۳۵
خالدار
کوبه
۱۳۰۱
سوراخهای
ترانههایی
مارد
##وگا
##۹۲
##UC
##ازههای
دستمال
کردهایم
برجها
اورینت
اشتعال
##بابا
۱۷۹۰
خاطراتش
ریتمیک
توربینهای
Journ
لنگرود
دایانا
آرزوهای
##iy
##TV
کمری
مینوی
رنگدانه
##ندرز
پزشکیان
۳۹۰
پترسون
کوردوبا
اویلر
IEE
public
سِر
نئون
##وویان
ایرو
نمرات
دهل
##وشان
##واگن
##کووا
کلیات
دنور
جنوبشرقی
##الدینی
خانهدار
بردسیر
جاهایی
صحنهها
##کریپت
پورتس
۱۷۹۹
۱۸۲۹
آشوریها
اسرارآمیز
##ouse
خاچاط
نگهداشتن
خوشحالی
رشتهکوههای
Ob
Sub
Spr
قالبی
##شیمی
##کندی
اوزون
##ازین
##ادیا
کمعم
##ony
##ream
جیپی
شعرای
##cha
##سبب
امیدواری
تیتوس
لوتوس
فدریکو
تعویضی
سیتروئن
واترز
##ruary
فخرالدین
عمدتا
نافرجام
صدارت
لیتوانیایی
Tex
دمیت
دیسکو
بازنده
شرحی
##وائ
میدهم
لیانگ
##arm
سرعته
ویتنی
آندو
میترسید
چوپرا
اقلیدسی
دایناسور
پطرس
موریتانی
فایر
##لستون
##آموز
دراوی
##ومای
متغ
ویستا
بوکر
زیارتی
کردنشین
اسلم
محکمی
اوباش
کلئوپاترا
Cr
##30
##صیر
##امیر
روبان
##تیپی
کرگ
##بالو
پرایم
باربر
##ستیکی
کنترلکننده
کورنو
##گلان
تپهها
تحقیرآمیز
تبهکار
نکشید
ساسان
صابر
قاط
چوشو
##اشترا
پرستی
##نامهها
##بدن
دلبستگی
##itch
۱۰۰۰۰۰
میگذرانند
فوقالعادهای
کوکائین
Bra
خاله
##قو
##cess
##ژیا
##ven
استاتیک
تاچ
##وشه
آرخانگ
اخباری
ولوره
رومانتیک
۲۸۸
عصمت
آلیسون
بانفوذ
##ادولید
ادواردو
کیلیکیه
فرزندخواندگی
pp
غشا
فَ
کدی
##جیا
##ов
##اهل
شدیم
##اتیان
##وستا
موجوداتی
ذخیرهٔ
##owo
خصوصیسازی
کابلهای
چنگال
التحصیلان
نامیبیا
یقه
##روج
نیوتون
##اوار
ازدحام
بدنسازی
۳۱۳
نائب
بارتول
خداد
##اگرد
##ودریا
مدنظر
##وشین
پلها
مینویسند
چیبا
گریزی
سادهسازی
بیتلز
سبزواری
وینس
روسری
مکرراً
سیستمعاملهای
دندانه
February
Gra
جَ
لوان
۸خانوار
##تینو
نووی
اندرز
اضاف
پوشک
پیشبینیهای
پلیمرها
تاجران
منقرضشده
دوگانگی
ترمودینامیک
اسپیلبرگ
SD
function
##دارد
استمر
موردنظر
ریشهای
اخلال
آلبومها
##میرزا
خروش
غلامعلی
گرگها
گناهکار
چمران
عرصههای
وستفالن
متخاصم
گورباچف
سویه
ضربی
استران
روندی
سیانان
##وزر
##وئیک
تعاون
توره
پایینتری
آسانسور
اسمارت
محافظان
ضربهٔ
هیدروکسید
فوکو
کنفرانسهای
۱۷۹۸
نینوا
قرمزی
ماکسیمیلیان
Aer
تروم
عادات
لانس
روباز
##ونیوس
علن
بدافزار
تولیدکنندهٔ
##ural
Star
فایلها
۷۴۷
نیکوکار
کاردیف
کارناتاکا
بپر
تارا
جویس
حصول
لوند
پَ
##ْم
##ریایی
روپیه
ایپی
ایسک
بیضه
دوستم
التو
پساز
##گانو
##وبند
نشاسته
سلفی
پلیموث
۲۵۲
جیغ
مفروض
ضدعفونی
خواندهاند
ناوچه
چهلمین
کایزر
میشنود
جاودانه
##ullet
توانمندسازی
جُ
زمرهٔ
ووچ
گیره
##وث
##rol
بهمنی
##اختار
چهارگوش
کلیپ
اسپاگ
صحابه
استادش
وینچ
شاهزادهنشین
اَل
موضعگیری
آرخانگلسک
غاری
##ger
##۴۳
##way
غیرانسانی
۲۶۷
ماساژ
all
##ئوسن
##ensis
هستیشناسی
پیکسار
جاکارتا
70
York
جلا
غازان
##۶۵
##آسی
همتر
اوائل
فیلارمونیک
سرریز
دیام
##میشود
۱۰خانوار
تفسیرهای
ترشحات
گویندگی
مصاحبههای
اعتصابات
آیزاک
هیملر
پروپاگ
آمبولانس
CL
Pal
none
خدان
گاند
##vent
روک
##لاشی
سرپیچی
معتبری
ویار
کرالا
بلد
##اینا
هدایای
۲۰۰۰۰
پادشاهیهای
##آورند
ناگاساکی
انحطاط
الجزایری
ایسنا
قائمشهر
پارامترها
jpg
بتر
حریق
کالت
##سیز
تیموتی
##elle
سختگیر
تدابیر
۳۷۵
نداشتهاند
جانورشناسی
1980
منچوری
ساخ
صحی
هسن
##اریک
نشویل
اولتر
##واو
##ایداری
فروت
یادبودی
کالابری
جلگهای
عالیه
##osh
پیمانک
آندرا
بازنشستگان
۱۷۹۵
بارباروسا
کجور
باپتیست
آنتاگونیست
Hol
MC
سلا
سکی
لوران
وي
##IF
##ویونلو
انریکه
معاص
اتاوا
##خانم
۲۶۳
لهستانیها
##پوستی
مرتضوی
لنکران
##eph
2004
آندرتیکر
85
آوانگ
توله
حارهای
شرافت
##زیت
##۷۷
انک
اوتیسم
##رکاران
دانکن
جنگیدن
بالار
نادرستی
لیتون
ریچاردسون
۱۸۳۳
یزدانی
عزیزی
سالواتوره
هلنیستی
##ارستمی
حشمت
آفرود
لنی
پسی
پوئ
##ناع
##ابیت
امگا
غیرفلزی
مجموعۀ
میکروب
مقالهن
تاتار
کاکتوس
واپاشی
بشکند
char
بالادست
باواریا
ذوالفقار
آپاچی
IEEE
Dav
محال
بیبر
گراس
##شکلی
ادل
##انسه
ورژن
کیارستمی
صفوف
##ody
زیستبوم
درونمایه
جشنوارهها
لایهها
1995
مامور
برادفورد
انزوای
دولتمردان
Aug
key
نطق
یاما
##قاره
##ینههای
##ریختی
فرهادی
میکائیل
##شنو
##۰۰۰۰
کوهرنگ
فعالیتی
سردی
گذشتن
189
کاوال
فوکوئوکا
فرخزاد
ترانزیت
ایندیپندنت
41
جند
جول
نتور
ورو
##عتم
استرداد
##لیتر
##وتسی
مداد
##کرایس
نسلی
##گوک
مکری
تئو
رخنه
درختهای
1993
دربرابر
امیلیا
لپتاپ
نپتون
##ودهای
##پنج
۲۰۳۰
خودسر
سرخی
هندوئیسم
باغچه
۲۹۵
فرانکی
یهودیه
تثلیث
گیمپلی
یوسفی
قدیسان
بیسمارک
آستراخان
رفر
ننگ
ینی
استم
فراس
استفادهکنندهٔ
۳۰۱
ناآ
الگوها
اردوغان
گیگابایت
خیل
پرید
##وستی
##مرات
##uf
##HD
##yr
ازاین
##نیاز
کرول
فرهنگیان
کلمبوس
انگیزهٔ
جابز
مختصری
تاثیرگذار
اسپاگتی
Her
خمر
دویل
میگو
##اسرائیل
##وزند
خوشم
کندتر
گلش
نمایشها
فقید
درامز
واژگون
##eck
۵۳۰
اندونزیایی
شدهبودند
یدک
گوجهفرنگی
##منین
##نیم
##چوک
##ثور
الساندرو
دستنشان
پیشینیان
باروت
کیونگ
لواسان
عبدالن
##irus
مظفری
دربرگیرندهٔ
لشکرکشیهای
##میلیون
AA
Kn
Les
بگذار
فانک
گلیک
##bor
روژ
دستساز
شنونده
نابغه
##بلیو
۶۴۰
۶۸۰
چمبر
الکترومغناطیس
کرایسلر
گلاسگو
یوه
اسقفی
هرن
موقعی
فتحالله
##الممالک
محتوایی
شرطبندی
ارسالی
فمینیستهای
علناً
75
Im
Ind
River
imp
خمپ
ندا
بیجان
کردهام
انجامشده
نظرش
آرتیست
مصون
هوازی
##وقا
۲۵۹
بردلی
##پلنگ
زاغی
۱۸۰۵
ربطی
عامر
هانسینما
تفتان
چغندر
دوزیستان
وایکینگها
مزایده
متافیزیک
اریش
ریتا
چاره
##van
##ایعی
بودی
##گیس
گرون
بناب
بیمع
##بلین
اسکورت
سیاهکل
حاضران
۲۷۶
شباهتهایی
کنفوسیوس
صدیق
زیربنایی
زمامداری
حجاج
سدهای
کدر
استنش
فراص
ارجمند
ملیگرای
##دانا
مترقی
میآموز
هدفهای
ندیم
مورب
اورست
دبیران
چارلتون
دستیاران
عمدهترین
سنگینتر
۶۱۰
جاذب
کتیبهها
زکریا
وستهام
سمن
قروه
لخت
هابل
چینه
##sse
امشب
##کرفت
گروو
مادرشان
سفرها
سخاوت
پوشی
معدودی
بشوند
سالیوان
چکیده
زامبیا
Island
خاخام
تپانچه
آوانگارد
بزم
##frame
میپیوندند
##ابار
##اتیت
##ندهایی
##وسر
##ینیوم
احم
گیونگ
برجک
خبره
مخالفتهای
##سفیلد
۱۷۹۶
عراقیها
کاشیهای
قوطی
کالبدشناسی
مقایسهٔ
متالورژی
Sam
Tor
خرب
۹۵۰
##ماز
##مایر
##ition
##FB
ازدی
بیع
##اشید
بالدار
شهوت
۱۲۵۰
فرمانداران
شایانی
هورمونی
مجوزهای
۱۸۰۸
نمایندگانی
کمپینهای
شفیعی
تفاضل
EM
der
pol
بجا
ثریا
##بلند
میپ
##ونگی
کارپ
اشارات
تنتن
تجزی
جریانات
مرتبهٔ
بلندای
سورانی
پیدر
درازمدت
امتحانات
بالیوود
نيز
قافیه
بدرفتاری
##۴۱
انریکو
##گرین
ایرنا
دارندهٔ
ابوری
۲۴۹
مهرآباد
۳۲۳
ژنرالهای
1994
##ولتز
سونوگرافی
مراتبی
دستاوردها
هپبورن
تریبون
Tre
mi
آویز
بشیر
خراش
شسته
##ماق
##آمین
##زهرا
##غهای
بهسبب
باسی
##انسازی
تقلی
هوابرد
##ایرانی
آهنگهایی
##تنهایی
آیبیام
مثالهایی
بسنده
سودآور
صحبتهای
زرهپوش
مراجعت
میشناخت
خاردار
لخته
یود
##ِف
##28
##ān
میست
برنی
اینجاست
##ونیها
تنبل
بارنت
شاهراه
قانونگذار
##urt
گورو
##ogle
لیسه
دزدید
ایدئال
هماهنگکننده
یاسوج
استندآپ
قاشق
حرفی
قق
##وهٔ
##رور
##بلو
##زانه
##ذین
##کنر
##کنده
پیپ
ملیگرایان
زیاده
نخاع
شهباز
##قیقه
اجراها
لوور
مبارکه
گیلمور
فولر
پیکاسو
دیسکهای
موزهای
برچیده
گزیدند
لاجوردی
کُدگذاری
جیجاقهای
نیکش
معضل
آلان
مردن
زنها
علیاف
##ril
خصمانه
ریاضیاتی
اسفندماه
اسقفنشین
کنشگران
میکشاند
شستشو
برانکس
سرگرمکننده
سنگفرش
AI
شاکی
ملام
هس
##حانی
##ومیک
توپی
دوبعدی
سهماهه
چاپخانه
پوآرو
موسمی
هاربر
اختلاس
##اژنز
##جویانه
Unb
کانیهای
وودز
ابتکارات
سفالگری
خوارزمشاه
تفرش
ایسلندی
خزش
زیت
##وهاب
کلب
##خیزی
کتابخانهای
فرزاد
۲۶۸
نابار
##راحتی
##سکوپ
آمادهٔ
نشانهگذاری
کمپرسور
PD
۹خانوار
##مههای
اهتمام
پاین
انجمنی
تکاب
پردر
ابوت
##ike
سنتها
دیوارهٔ
سلسلههای
باریکه
اسکاتلندیتبار
۶۳۰
۱۲۸۵
ساندنس
##awa
رزمندگان
مزدک
مقتول
تخلخل
یوریتومو
Luck
Plan
SC
گوه
##يز
##GB
درنتی
##ورانی
سالروز
سال۱۳
##اردن
ایبار
دوخت
مشوق
مشبک
##اواس
##aly
سینث
انتقادها
##oman
بسپ
پیمانی
دونفره
بنزینی
زائد
آنارشیسم
ملوانان
باقیماندهٔ
da
رله
فاس
##فام
##کانو
متس
##میش
گرش
آلد
دیدارهای
خداست
بنیاسرائیل
شوقی
کنتراست
۲۸۶
۲۸۴
مزدیس
نمیتوانم
نبوی
ماتری
اِن
بیاح
مالیاتهای
لولهها
مأموریتی
ایندیان
کانیشناسی
آندریاس
فرگوسن
نُه
بیخانمان
47
غیب
##sta
##kh
سالخورده
کرخه
کشفی
##موش
گوین
وسوسه
حلزون
امانالله
منفعت
آرتمیس
میفرستاد
صخرهها
آپارتاید
ثلاث
کمعمق
ناری
ناکس
گسی
گامی
##ulation
درا
موگ
بازیهایی
نوزادی
دورۀ
هروی
زبانشناسان
##پرستان
فارن
پژمان
آیپی
پارکها
##والکتریک
آندریا
بوتس
۵۴۰
برمیآید
پمپاژ
حریفان
بخواهند
هاتسپر
King
اژه
تکس
خراف
وامهای
گوا
##۳۱
##قصد
##فانی
##sy
##۷۲
##أن
مروری
##رفیلد
##بانان
تعز
افزونه
پاراژنز
فرودگاهها
نمونهبرداری
صنعتگر
فتوسنتز
۴۷۰
۱۸۲۲
دایرهٔ
پختون
صیاد
بُعد
برشمرده
ساندرلند
آتالانتا
جلیلی
ناقل
##ji
آنک
الجی
##وئیدی
کندن
پناهی
ضراب
سخنرانیها
۱۷۹۲
جاویدان
FDA
مگا
گایا
##۵۵
کربو
کنتس
جانش
مسابقههای
قیچی
وایادولید
اندامها
حوضچه
آسایشگاه
یخچالهای
American
بلاروسی
Dec
SN
خزان
عرفی
وم
##ناف
##بانگ
بازکردن
گردی
مغال
آتشی
تنظیمکننده
پناهجویان
مرغابی
معیارها
توالیهای
اسنودن
رور
هپت
پونتی
##لي
متلاشی
سریهای
کیوب
معنویت
##بینو
آتات
شاخصترین
نمایشگاهها
العربی
ستیزه
آتر
تبانی
لارا
دیکسون
زنبق
##یسن
نمیگیرند
شمالیترین
اورال
##یناوا
##ایفسکی
دوچرخ
تپوری
آیتم
خرابههای
پاتریارک
نردبان
Iran
اثیر
نادو
##پتا
##ّین
بربری
برآن
##ولینو
انفع
##گرس
اترو
##rist
میناب
مهرهای
ماریان
روشنتر
دانشکدهها
سمتی
فنیقی
الحاقی
جلبک
دویچه
ابعادی
۱۷۸۰
نبوغ
Ga
Hist
قال
وندی
##َا
##ومیا
اوکل
میشکند
دیارب
تحصن
##eta
۲۵۱
۳۰۴
بخوانند
حادثهٔ
this
میاندازند
پاستور
پیرامونی
NS
مندی
وایز
پز
اینت
اسکس
محسنی
سپهر
دریاهای
کتابداری
##مهها
##وستد
عرضهٔ
جنگلداری
دیلن
شتابدهنده
##ugh
آپارتمانی
کارفرمایان
کپلر
Georgia
دیاربکر
Award
Pat
سدی
لویس
کانک
##چات
##کتون
ایرانیکا
##ili
شبیهساز
محمودآباد
غلت
تنگستن
کوشان
گلدمن
##ization
درجهای
ولورهمپتون
##صریه
##غا
منن
ایکی
گرامید
تحولی
ساختههای
حداد
ملازم
سلطانیه
۳۰۶
##پلاس
نبردناو
##اسیونال
فرانکها
النصر
فاحشه
Texas
توج
السی
آرمین
شهبازی
مبتکر
2em
ccc
ظن
عابد
نکوه
گوران
##lı
##زینه
##CD
##احد
##متن
##ومیان
پوشان
۲۳۱
عبدالوهاب
روندهای
بازدیدکننده
پائولا
راسینگ
جزیرههای
ماهیچهها
مائوری
رودریگو
رأیدهندگان
##وبرداری
ژوراسیک
Villa
جب
غشایی
ونگ
##27
##ُد
##zi
##zh
##ندز
ویچنزا
سیاهی
##inal
مکاش
مسلمین
ایستادن
اصلاحشده
سرخپوست
ساسکا
۳۳۶
##ivision
رامهرمز
برونئی
تفرج
ببخشد
بتوانیم
گارفیلد
پورتسموث
Mal
غدیر
هائی
پتری
##ар
##۸۴
استین
اوسی
ناممکن
شرلی
رقبا
لهجهٔ
امرسون
الگوبرداری
سلوک
ترجیحی
هزارهها
یوزپلنگ
H2O
Pan
آجود
بگویند
حوا
##لول
##كت
همزمانی
##الیستها
گربههای
##وسور
##سیداد
پروجا
شمالغرب
رادیولوژی
آذرخش
کمربندی
مینواخت
جایزههای
کنجکاوی
تروتسکی
باتوجه
ابوریحان
Love
جراحت
##راس
##gram
##۷۳
##TM
##نگرد
ناظم
آسپ
امیرآباد
چپگرا
##گردانند
Studi
خانمها
نعمان
هویتی
Press
فاریاب
ناعادلانه
ققنوس
جبار
سمند
پویش
##ورود
##فرما
جهشهای
شکافی
تعادلی
##وارههای
اغوا
غذاخوری
علاوهبر
##لزل
سانتیم
شاهزادهٔ
مدعیان
رجینا
معاشرت
لگاریتم
mapframe
Falls
حکومتش
To
عاد
##si
همف
دیالک
##بالان
بینگ
سلبری
##وارهای
کوته
لوپ
کنارههای
ورزقان
کاونتری
موساد
زندانها
شدیدترین
۳۱۲
قالبگیری
##ird
الحسن
کامپکت
آرایههای
ارگانهای
رجیستر
گوادال
Ju
per
حیله
پوس
##39
##ابیم
راسک
لیام
شوکه
مراسمهای
ماکسی
پویانما
نمازخانه
شاگردی
اسکندری
##ruct
هروئین
پاراژنزهای
Ben
Pla
Power
اودی
تکوین
سگی
پختن
##ten
آنِ
آنژ
موعد
##وبیا
روستوف
آرین
اجراکنندگان
۲۸۱
##فلوان
۱۸۰۷
محتاط
1989
##مردان
خویشتن
سیهنا
گرامیداشت
ساسکاچوان
HP
Sil
link
رزیدنت
##چاک
##ثانی
ایسی
معاهدات
##ونیس
الشی
مشگین
##کراس
زندگیش
جامهای
دلیر
شناسنامه
تیپهای
Enter
فرقهای
Peru
حنفی
برشمرد
بئات
وبلاگن
##خوری
##غامی
##بیگی
##انسر
شیز
پلکانی
پوشید
چاپگر
خلیفهٔ
Info
میافتاد
کمانچه
بردارهای
چشماندازهای
نوردر
##خوردگی
مکالمات
بیخبر
تاهیتی
Del
ft
گپ
##عن
##ترک
##ادیق
آلرژی
میرسیم
مصنو
فیبری
۳۱۵
بادبان
ناخدا
ملکشاهی
فرمانروا
واقعیتهای
۵۶۰
شریفی
عامهپسند
نصیرالدین
باطنی
نگرد
##پک
نمکهای
شیروانی
##eld
بورژو
ویلم
شهرداریهای
##بروز
گالیله
اطلاعیه
زیرمجموعهٔ
دندانی
روغنهای
France
ائمه
قضیهٔ
بوئینزهرا
نیکشهر
Hello
چیا
##فلر
##انیس
جهادی
##ato
فقهای
کریستوف
تمدنی
۶۶۰
تکواندوکار
منقار
انتزاع
عزتالله
88
ge
كشور
چنای
گینز
##لنگ
##FS
میج
یکساله
اوکس
مساع
تمپل
##بوست
اولینبار
##وکش
فلد
##کاظم
حملههای
۳۱۶
پریشان
۱۷۹۷
##ever
اکرم
عتیقه
مصنوعات
Cast
اورک
نگیرد
پولو
##عاملی
درها
##کیب
مقعدی
اعاده
هیأت
ملودر
##اگن
##اجان
##مراد
حیواناتی
بگذرد
##جنسی
فروشگاهها
سازوکارهای
نکتهٔ
اسمکداون
عجله
لاد
##LP
##پینا
##ردار
ایجی
مرسی
روزنه
##inn
فلین
نسبتهای
نورونها
فرزندشان
۲۷۴
رزون
آهنگر
##aker
##ept
اتوبوسهای
دوزهای
آجرهای
اوقاف
دمیر
شیدا
ولا
واو
##حک
##فتامین
معظم
کلمهای
##onia
آبا
##اواتی
##گزینی
##omm
۳۰۲
مشهدی
دستگاههایی
رمانها
قراردادها
دوستدار
فارغالتحصیلان
گلیکو
توباگو
بگذارید
84
Mich
خیم
##cia
##۷۸
بروید
##استرین
شهیدی
رفتم
یوکی
کاتانیا
تسویه
تئاترهای
##بینانه
خطرناکی
قزاقی
نبوت
۳۳۳
پرچمدار
استعاره
صادقانه
زینالع
خوشنویس
نفیسی
باوجود
مجهول
##وودی
##vi
##եր
بهتنهایی
##برهای
پیشخدمت
دادهٔ
پنجشیر
توسعهدهنده
فرودگاهی
##گارا
کاریز
##adem
۳۲۶
نانول
کانالها
دگرباش
کوئن
عرفات
کهکشانها
یاسین
##ength
مزدیسنا
بندان
حنا
سما
شغ
عاقل
پستم
##RT
##تیکا
##عتری
ماونت
مؤمنان
##وازد
ناپایداری
وستمینستر
موریسون
بیهقی
محلولهای
پمپهای
درمییابد
آبوهوای
متقاضیان
آروماتیک
##ulleted
Unbulleted
Bas
سهره
هویج
##۹۴
پیسی
بیولوژیک
کرزی
مصباح
انتخابهای
نوشتهای
چشمهها
سرزمینهایی
##شاهیان
صورتیکه
العاده
سوءت
گاردن
طنزآمیز
نبودهاند
میپوشند
ضایعه
هوشیار
تراکتورسازی
متخلص
پلیمریزاسیون
Mg
فواره
##طب
برست
آمارد
پرایس
نشیب
اجناس
دلپذیر
مالدیو
کرمانجی
آشیل
##پردازیم
کپیتال
##کوتاه
دایمیو
سیریلیک
ماتیاس
آماندا
Don
وگر
##آقا
##OD
##GC
تحلیف
ترسی
مرداب
صدمین
بستهها
آیندهای
وینگر
برهمن
##نوشتههای
##َرَ
بسترهای
ذوبآهن
زنبورهای
فلامینگو
موعظه
پختونخوا
set
##کرو
شهرزاد
ایرویز
میلههای
مردود
نشات
##کرت
کوکی
هیز
خطهای
کامو
اِل
کاشمر
##وچین
Journal
B1
Cat
زحل
باکر
نامشان
کنشهای
دانشور
مصی
موسیقیهای
##چیانو
نیمکر
منتظم
یونیسف
گاردنر
سیلیکات
Luke
فیا
##قش
آنفلوان
سالهاست
سرر
الاست
متحول
اولگا
##ales
##use
خصوصیت
بولز
کلماتی
باتلاقی
1981
##559
51
ob
حاصله
رامی
سمب
فوریت
گوند
##زبی
بودنش
ایبیسی
کارتل
کنه
آلتر
گروهش
##اجره
رودان
مالاوی
خارجهٔ
۱۸۱۶
کاروانهای
۱۷۹۴
کماندار
مزدور
فولکسواگن
رنگرزی
Ho
ژئوم
##عالی
##۷۴
یکت
##برایت
##الیکا
زندگیشان
تعرفه
جوین
فناور
##شینند
توپولف
فدراتیو
بایزید
هتلها
پاشنه
توانستهاند
کوهنوردان
1988
شاهکارهای
بمیرد
فارماک
اشاعه
التماس
95
آیدا
کویل
##OH
##طوم
##ندار
نظمی
بنکس
لیب
گلچین
##تریت
فرایبورگ
۲۷۸
##ipp
بازرسان
اوکیناوا
300
Out
گابن
##دندان
بیسک
کرامت
پروندهای
بالعکس
غیراخلاقی
۱۱خانوار
مالتی
آزمایشهایی
مطلقه
تراشههای
ویدیوهای
اتوبوسرانی
ادینبرو
خیمه
##یدانی
بازپ
کلرو
##orf
لیختن
هنرنمایی
فرزانه
زادآوری
عربهای
ابوح
۳۲۸
اعتبارات
علائمی
##اندیشی
گراش
نمیشدند
شستشوی
نامحسوس
جاودانگی
گلپایگانی
میگریزد
000
Die
TS
سمع
چور
##ویند
##ئات
##شکی
##uro
##اکسید
##جهان
##شمال
پیشاور
تجمیع
بنیصدر
##پلاستیک
۷۳۷
اترنت
استبدادی
بیخدایان
پسرعموی
خیاطی
یسوعی
زینالعابدین
Az
Mat
ثلث
قولی
##رج
##uage
##پام
میپذیرند
##ویست
نیوپورت
گرانی
اراب
افرادش
بعلت
بیشاپ
##بورا
یونجه
##سوگی
##heim
گرانترین
پنتاگون
اسپانیول
صداوسیما
Cu
net
سز
مکار
##ّهٔ
یکجا
نماهای
مرکل
##ودیازپین
اردوان
##ندرت
تعیینشده
۲۷۳
۳۳۸
چرخان
سرمایش
کاشیکاری
۱۸۰۳
دکارت
خودآگاهی
One
بج
طارق
##گي
##OT
##որ
آمبر
موزایی
##عداد
تاریخگذاری
علیال
دولتآباد
نمیپذیرد
گزارشگران
دنیوی
۳۱۴
Airport
MA
شامی
وایر
##واقع
##do
##دلی
موبدان
میانههای
علیمحمد
##لندر
##ties
۳۰۸
اورلاند
جرارد
اشتراکگذاری
مایکروویو
مطمئناً
ویراستاری
ویراستاران
کارناوال
##739
لمباردی
Bor
Land
SQL
Vis
شازند
وهم
##key
منجمله
##برج
کرملین
مجیدی
دورن
میتوانم
آزاده
ماهشهر
میدانها
##tif
۳۰۷
##یدرمانی
ولسوالیهای
کنکورد
کلمبیایی
MD
کبالت
##ος
##ینشین
سهگانهٔ
ابرک
کالایی
ماندارین
الکتروشیمی
کولون
لئونید
زیانآور
بحبوحه
دیزی
سیونیک
کنز
##نینی
کشورمان
##کرون
میرا
هوآ
اصلیِ
خبرنگاری
جیبوتی
کاربردهایی
والش
پاوه
استیونز
سهامدار
کمونیستهای
ریزساخت
گامبیا
نابرابر
فلاش
آریانا
درنتیجه
node
##OP
استیناف
نامعل
نوازی
بوچ
نظافت
##لسر
رسلمانی
مطب
مارن
کاهنان
نورس
##هنر
سفرش
۲۹۳
سوروس
تکنسین
۱۸۱۷
##آیوی
هیرکانی
لولهٔ
##ense
عزالدین
##الزمانی
59
PV
Rh
آدا
چات
ژئ
##bi
##ژا
##زیل
##دهید
بهط
اوّ
ای۳
بیور
بیضا
هرمس
رویاهای
میراندا
شنل
هندرسون
رایدر
##پهلو
گرمتر
ترومپ
هتلهای
نوشتههایش
استثن
۱۷۸۳
کوهستانهای
فیزیکدانان
میمیرند
آبوهوایی
نووگورود
طارم
چیم
ژوپ
##cff
##پاره
##ینین
بهسازی
هرسین
بازهای
تنبور
بلات
شبنم
پلدختر
مهاجرانی
##عملی
عبدالعلی
سودمندی
رابرتز
تصورات
آمیگا
##طلبانه
جبرئیل
انیمیشنی
آدرسهای
that
پنگوئن
کووالانسی
پیدرپی
##tor
معر
پرای
کشورشان
سوسیس
۱۷۵۰
کنترلهای
خارجیها
پشتوانه
جورجو
ماکائو
سنجیده
السلام
میکرونزی
نتورک
نامعلومی
soc
serv
##شکنی
##yc
##ادزور
اوتا
پرزیدنت
شکایات
بلای
سنن
هیولای
اکون
۲۷۲
باندی
ویلای
کنسرتی
##press
زنجیرههای
ابوالفتح
پلاسمای
طایفههای
بورگوندی
تشعش
زول
ضیا
##تراخت
##اکرت
مصح
ملانی
##riev
ازدواجهای
آینتراخت
نابسام
هارلم
اخلاقیات
ترجیحات
معیشت
ایزدبانوی
##733
فرآوردههای
##۵۳
بهداری
بهراحتی
بهندرت
کهیر
##اسای
##اشتاین
معبدی
فیلمهایش
ریودو
سنب
##اوک
شخصیاش
ستد
پلک
ولینگتون
رایزنی
انحرافی
کیسههای
کشیشان
دوبلاژ
لرزهای
شکوفه
یزدان
مکینتاش
نوردراین
dem
مامی
روبل
##وتور
سرجیو
معتق
ویسکی
دیان
سیکس
##ربا
بارهٔ
آباده
سکولاری
کارلایل
نگرانیهایی
قنبری
لیونل
فراورده
بافندگی
##طارق
گونزالس
پیشنمونه
جثه
پانی
##چرخ
##ژک
##پینگ
متین
میلهای
میلواکی
##وئیدها
سپردن
افترا
دقیقهٔ
off
##shire
الکساند
۵۷۰
بومشناختی
زنجیرهٔ
تستو
معیوب
دایرة
کرکوک
مزدوران
هادریان
تزیینی
سیارههای
معاصران
ccccff
فج
##صح
##ینچی
فیلترینگ
##فیز
تحتالح
رومات
محدودیتی
۳۱۷
سودا
آبادیهای
تقلبی
ویمبل
##پژوه
خضر
ژیز
##lor
##ژر
##پاپ
##يا
استیم
بیوک
سهیل
لیان
معمای
آسیبد
۳۰۳
علاقهمندی
فیلیپو
افسرده
فتوای
باگر
##نیکو
جامعی
کانونهای
اسپید
هندس
انتقادهای
پلاته
استرپتو
۲۷۷
##urs
پوستهٔ
واکه
##ordin
۱۷۹۱
۱۸۲۷
##روهه
Green
پانتئون
نمیتوانیم
آبجوسازی
کونت
کپور
##erc
استتار
اینو
کارپن
بعدا
آرنج
غیرضر
##dium
##اجرا
تورا
کنترلشده
پایهریزی
دامر
ماسوله
عزیزم
شکافهای
قنبر
دیپلماتهای
استریپ
سیکلو
##پرواز
مستثنی
Luckie
غرفه
قونیه
##چری
##گوز
ازآن
میایست
##کیانگ
کنست
عنوانِ
نقده
هرتس
زیرد
مخمل
هندوانه
دریافتکننده
صنعا
محمدر
آوازخوان
فوگ
مرتفعترین
گوساله
دستاندرکاران
500
جگر
مرید
گراسی
##وجه
##put
##ژنیک
##کنگ
##ستوی
براندن
توگو
##راکی
یاش
##ورتون
##اهیان
کلیدها
جنوبیترین
سامرا
ساختمانهایی
ابرنو
۲۶۱
کلاژن
قیمومت
کشیدهاست
اعطاء
لارس
وصول
سرمایهٔ
ایزوتوپهای
دقایق
شامپان
Gener
NF
SA
آجی
عقیم
##پاشا
##حههای
##وناس
آمیل
تاکام
جانستون
جهانگیری
اکتاو
پولشویی
آکیرا
سیلک
سانتو
۳۳۷
##ally
۴۲۵
جناحهای
کنسرتها
قاچاقچیان
مجروحان
سرگش
مرضیه
کمکهزینه
خداناب
label
یکدست
##ترتیب
##یموتو
##بیس
آلدو
تنفروشی
علفهای
ملازمان
فروزان
کاهشی
پاسدار
بوربون
قیمومیت
روایتگر
بهرامی
عقیلی
منازعات
آنارشیست
مافیایی
اشنایدر
نئاندرتالها
پرانرژی
نمیکنم
##آوازه
کالابریا
ویمبلدون
Cer
NA
رفل
##۶۴
آمودریا
املا
سره
مکدان
سینوسی
سفیدی
ولزی
مطالبه
اسمول
هلالی
اختلافاتی
##ster
اعتمادی
مینامیم
سنجر
هشام
عقلانیت
باهاما
مرجعیت
پیشنهادها
آبخاز
ازدیاد
BM
Pl
جشنی
##ّار
مرق
##اشر
شنوندگان
##پرایز
گلزنان
مخد
فقها
##itz
ماشینسازی
هارپ
اکسپرسی
آیدین
۱۸۲۳
بههمین
شالکه
مسلماً
add
حری
لت
##mo
##استا
رودها
توسی
اعظمی
گفتو
طبابت
یوآن
##وگراف
ایزاک
##app
آلفردو
شالوده
پشمی
سوانح
سمپد
طایفهٔ
صاحبنظران
Film
آزر
سودی
##ef
##ior
##ga
##BN
##GP
##لاوا
##انواده
ریگا
##اوغلو
سبیل
گیو
تیزر
نوشتهشده
عبدالم
عبدالرضا
هاوک
منازعه
دربردارد
پردرآمد
تستوسترون
غیرضروری
ترافی
رمی
بریل
المو
اصناف
پرندهٔ
بزرگنمایی
خطه
تشکیلاتی
تکفیر
ولنت
تخلی
تخمهای
۲۸۳
کریستالهای
اهدافی
حجیم
تدوینگران
گویندگان
خلاصهای
سمیرم
اتابکان
ویسکوزیته
مصیبت
بپذیرند
داکا
قوش
##اغی
##ساخته
##زانی
##کونه
##ْس
نامنویسی
اعو
بلف
گلادی
تفوی
زادروز
کورا
##الملوک
۳۹۵
اونیل
متابولیک
تایتان
بچرخ
لگد
پشیمانی
انضباطی
##قهٔ
برنجی
منفعل
بودجهای
تولیت
##یاو
اوروک
##rap
۳۶۶
سوزش
مینامید
آدمهای
جامدات
مقبرهٔ
دیسکاگز
یکپارچهسازی
طوفانی
تودهها
مصوبات
آئودی
برادرزادهاش
خمسه
Aust
عَ
پولیس
##hr
##go
##ترود
کارنی
سرجو
قرارند
پرقدرت
##شمن
منطقههای
بلوند
گلزار
۲۸۷
دربارهی
صلحآمیز
اسفنج
States
کراسن
آندرهآ
محوطههای
مارمولک
طمع
عاشی
کومی
##لوت
##EF
اینه
راکول
##ترس
سرایت
##اندام
کرین
##وکلئ
سادهٔ
متوسطی
بستهٔ
##str
خشونتهای
نشستهای
ذهنیت
کیکاووس
کارآمدتر
افلاطونی
WWE
Da
سفی
##فها
##ندۀ
اوکی
##ازگی
نیفت
شرمن
هیده
لیژ
مادرم
##کولن
مهارکنندههای
وصیتنامه
معرفتشناسی
ABC
Gi
زوم
##یسه
آرشی
جهانبینی
##وفسک
هاوانا
الهلال
فیزیوتراپی
نتوانند
نگارههای
سیلیکونی
ناامنی
تالیفات
استایلز
سورینام
لاینزگیت
بورژوازی
self
جوندگان
##۲O
##میا
##مارکت
##بلاغ
##XX
ایب
بیگی
البل
انگلس
پیشات
ردبول
ویلیس
سنجابی
آیدل
لزبین
کرتیر
آلکساندر
هراکلیوس
اسپیریت
بشقاب
Cla
Ta
Tw
go
چست
##گزی
##شف
##hu
##غانه
##YP
##ردین
##ولم
اوکان
دوطرفه
کمخونی
زیربخش
ادسا
کامن
نوردیک
سردسیر
سختترین
جرگه
سرطانهای
اسدآباد
اولویتهای
نمیدانم
اسنایدر
RT
man
math
##پانی
##ակ
##۸۳
##كه
استاک
هملت
اوف
ویکس
جنوآ
پیشا
##نوتی
فلان
##وفو
ابون
کالیاری
فناوریها
##آنکه
حراست
هیدر
کارآگاهی
پدیدهها
فایو
فتوولت
زارع
الواح
Time
##rieved
Sun
was
عارض
غنای
فِ
نینو
##ثانیه
منبت
##ترها
مرلین
دانان
دادوستد
##وهیتو
جهانگرد
##زدد
فتوا
##igan
##وگرام
نرماندی
سارایوو
۵۹۰
ردیفهای
فرقهٔ
یکنواختی
هیجانانگیز
بلومبرگ
تفرقه
52Z
آوارگان
پرکاربردترین
نیمرسانا
مایورکا
جزی
صلو
##پسر
##60
##جاب
درانی
##یرس
توکی
موتو
##مدن
##انوو
##اسید
##لسکی
آبگیر
شوراها
نگین
شیرها
اورارتو
بازارچه
جیبی
سختگیری
نهادن
سلسلهمرات
برمیگرداند
فاعل
شراکت
گاراژ
5739
آگری
##تسو
بروتوس
##زیستان
##اندیش
##بالدی
۱۵۰۰۰
اقتصادهای
ازدواجش
اضلاع
سقفی
۲۶۹
بورسی
پروندهها
گرافهای
اوپک
جوم
واه
##vel
میگرفته
استپان
بنو
دلم
دلت
کامین
تیرول
فضاها
آپولون
چالدران
دیروز
تاراج
کیناز
بولیوار
بابیان
میداشتند
میبندند
area
کاکاوند
Du
نمان
هکتور
یونیک
##رشتهای
##مارد
راور
رائو
##اییهای
فراش
نامس
تحمیلی
##اطت
بنظر
##لموس
ورودیها
۳۲۹
اخترفیزیک
۳۸۵
کینزی
##ذهب
کارلسروهه
خوشبختانه
سمپدوریا
عیس
گاور
##ّات
##اسونیک
دوربرد
##کتین
رنگدان
سیاهان
۲۷۹
کاریکات
خریده
۱۲۹۸
بلاغی
نائومی
##ارضایی
شنیداری
وشمگیر
573979
ختن
فوئ
قادری
##۶۳
##گیم
##احمدی
بنتون
سیمپیچ
قاجاری
فاصلههای
انصاف
Infobox
لوتری
مگاهرتز
يا
کراف
##ied
مدعو
کوآ
مارا
##atus
طبیب
انسانشناس
##تلفه
توصیفات
ابوالع
۳۱۱
ویتو
۳۲۱
قیصریه
۱۸۰۲
##ource
افسانهٔ
کاکائو
بنفشه
بتیس
##مارک
##گشتی
##كي
##فرهنگی
پرینس
شمول
کانتو
خواندهاست
اکولوژیکی
یادگاری
پرداختی
انجمنها
۲۷۱
قراردارد
اطرافش
##gine
همجنسگرایانه
بومن
ریهها
طعنه
بازمیگشت
score
value
fe
lo
بکنند
مونا
هاکس
کنیز
##قامت
##مرکز
##اتار
فیلمش
سرشناسی
بیزار
مرکزوار
فارو
##ویتسا
اورگان
ماهیگیر
۲۹۸
تایگر
۳۴۵
۵۱۲
گفتگوها
تجسمهای
طاهریان
##وساکسون
اورلاندو
Ori
غله
##َع
##یرهای
##ابطی
مسب
##جرالد
میگویم
##پلاسمی
بهرهمندی
هیدرولیز
باریسال
شعارهایی
مناقشههای
قاطعانه
صلحی
Germany
اگوست
نعم
##لاد
##فلی
##dle
##عق
##gen
##ابلیک
همکف
گرج
بارتون
سهند
سوژ
ملای
ملون
داستاننویسی
۲۹۷
گریگور
عضد
سیرال
ناوهای
آیینها
رهاسازی
۱۲۸۸
بلکپول
سجادی
لاکی
لولا
##قای
##iri
##زفیلد
##تراشی
سربار
بدانید
سهتار
##جران
اسکوئر
روانهٔ
۴۷۵
##مجید
۱۷۸۸
آبرسانی
مناسبتهای
نورثهمپتون
سولفوریک
صهیونیستی
فیتزجرالد
bl
تابی
شأن
نول
هجو
##սյան
ازمیر
##هاپ
نووارا
القر
ادم
##ورتا
روزنامهای
هیگ
سوخ
آموزه
دیدگی
لوسیا
مالاگا
ویلفرد
جستار
۳۳۱
ناگویا
گالوانی
کاستلو
۱۸۱۱
کاندوم
همدست
بیرحمانه
6559
غفلت
مظاهر
ونس
بهزیستی
تودهٔ
خودارضایی
محج
پراید
##ودیوس
ملموس
مینیاپ
شعبهٔ
هفتگانه
ارتج
سخنی
کاظ
۳۲۲
بازداشتشدگان
مقالهها
بیاثر
تخمگذاری
مهارتها
08T17
Mart
##ازدگی
اسفندیاری
ربیعالاول
علوفه
رسلمانیا
87
Pu
##ندا
تواریخ
آموزی
موجه
دوو
##اکسن
علین
ورایتی
راههایی
مایهٔ
حسنعلی
جرثق
عدس
سیگنالها
بوسان
چارچوبهای
اشرافزاده
بیانیهٔ
تامیلیزبان
دغدغههای
خودزندگینامه
کارپنتر
کاریکاتوری
6559733
57
سورت
##آسا
درگ
##یندا
امیدی
ناملموس
##وریوس
##یکر
##اوو
جهانیان
تشکیلدهنده
پادوا
هندوکش
ولگرد
خاصه
فرانسویان
اورا
آیهٔ
عقبی
عواط
نمونهگیری
لایف
بحثی
##ords
۵۱۰
یگانگی
تبلت
ساعاتی
آبزیان
وگرنه
Mul
WH
oper
رضی
زسکا
یبوست
##لری
##por
بهوقت
اوغ
آمپر
پیوس
تقدیس
نتیجت
اسکوشیا
ارتداد
استرابون
هجومی
۲۹۶
##شناسند
بیاعتم
۵۸۰
غنیسازی
نشینان
##ansas
ترافیکی
TR
شپرد
فوس
لچه
هوب
پوندی
گین
##لیب
اوبی
آلکال
##بانک
پلههای
پاسداری
آزادکار
اسفن
برداشتهای
آخرالزمانی
حجره
##فروشان
تبرستان
آبوهوا
رفیعی
انواعی
متفرق
مندرج
نتیجتاً
NBA
سفتی
قلا
گاوی
یمنی
##ذل
آمنه
کرس
مجلههای
پرولت
اسلوب
سینسین
کاتو
ردپای
شانون
۳۵۵
مجرمانه
حواریون
شقایق
خوابیده
رقیبان
هایتس
وکیلی
تقلیدی
void
جوب
فط
##رفته
##ژنگ
##میو
نووا
کنعان
آلرژیک
مشاجره
خواف
زنای
ورمانت
بالون
سناریو
هایپ
سیندر
درآورند
##تاوی
فشارها
تکنوازی
میکنی
اسرائیلیها
فالکون
لنینی
کارکردی
اشتراوس
المپیکی
جنگافزارهای
فولیکول
دلقک
کولا
##35
##کامی
درصورت
متالیکا
ویچ
شهرآورد
اقام
کویری
##inae
سطل
##ati
سینکیانگ
خرابه
اورلئان
رونوشت
۳۲۴
قادرند
دماغ
##erson
##ago
موافقتنامه
اوپانی
گوسفندان
سارک
##بادی
##۸۲
##ão
روورز
دوئل
بدلیل
نیریز
برگن
##dia
سیاح
اختت
کریشنا
جوانمرد
ندای
دمش
اپیت
اچتی
فرانکن
آنتالیا
۵۲۵
فراخورشیدی
لیکرز
بنزودیازپین
اتوبان
جلالآباد
برانگیختن
دکستر
اگزیستان
ارتعاشات
58
cl
var
خندان
لعل
##O4
##۷۱
##اشتن
پرسرعت
بارباد
##التس
فرمانهای
##زاوا
##سواف
۳۰۹
اورانوس
آلمانیزبان
۲۸۲
سارتر
پروژههایی
العین
۴۹۰
گردنبند
النور
طاقهای
آئرو
ثانوی
پلاکت
لوکیشن
آلومینیم
شتافت
ایندیاناپ
Ur
پونت
##تیل
##ّن
##ّب
##ویچی
روضه
ایول
بنگاههای
جوکر
نهبندان
##انتین
حملهور
هنریاش
معنادار
امپراتوریهای
۱۷۹۳
زخمیان
فالکلند
جاودان
حمدالله
خازنی
margin
PA
طالع
##نسی
برروی
##اسکریپت
پیوندها
جمجم
دوخته
میکرون
##گریت
بیرحم
مرگهای
کوچکش
##ورکوزن
یوافسی
آیینه
پاکت
وساطت
آزادیخواه
هلمز
ویتوریا
۳۳۴
بخورند
صادرکننده
کاپیتول
اقلیتها
هایدن
پیچیدگیهای
آرماویر
تاسف
وداع
##لئونه
پلینزی
تمثیل
سانتیمتری
طاهره
لیدن
##۶۱
##95
##ск
##سیزی
##ترامی
املای
محتش
سرآمد
##نیش
تنسور
مانیل
هیپر
مککارتی
مناسبتر
سربازانش
##raw
صربها
ریسینگ
چالشبرانگیز
۱۷۷۰
Mark
اکراه
مدرنیسم
کوخرد
##حضرت
DA
ساندی
فزونی
##َف
##Al
##ایجی
میاندو
##هرگان
اهانت
##وسکوپی
آلما
جنتی
دریاچهای
آغاج
کیج
ورزشگاههای
ماسهای
گورهای
قراردادش
ناپلئونی
گشودن
کابینهٔ
اپراتورهای
Valley
دغدغه
Grand
تفویض
Cre
Sur
دادی
هایش
##دقیقه
##ْل
اوتی
روزرسانی
سیّد
سازان
مورا
پایتختی
چرای
##غناطیس
گویشور
نیکلسون
مبارزهای
Retrieved
کوارتت
تویی
پریان
##دونگ
##gn
##ст
##ونیستهای
دانشمندی
اولاً
اتیل
##یسک
سنه
شوخط
هشتگ
سیدمحمد
کشتهشده
##ایزن
مسافرتی
##اکاوا
قدرتمندتر
زنگبار
محافظهکاران
پوتس
مسافتی
بیتیاس
##ویروس
میجنگیدند
بلشویک
فیک
قامت
##السی
پیشم
بیابند
دانایی
آلساند
بنزن
رسانای
فتحی
لینکولن
مُد
گوانگژو
طومار
آناستازیا
سوغات
Big
CA
Emb
Trans
play
ظل
##سرب
##نال
##خودی
درمات
اسامه
آرچی
هوو
تشکلهای
##اویج
##خارجه
دینو
گیاهشناس
جعبههای
سرخه
##oto
زدگی
##پوشان
سوپرجام
ترجمهای
ونزدی
دگرگونیهای
بهسمت
ساتراپی
ادینبورگ
Gar
کابر
##جال
##իկ
##تیش
##کنتر
پیغم
کرتیس
##اکش
##فتهاند
پرندگانی
##وشد
زمینههایی
هیزم
برجست
هدفگیری
پرداختهای
حملاتی
آسام
ایماگاوا
سرکشی
اکسپل
یهودستیزی
بزودی
پارامتری
گوتینگن
جراحان
پهلوانان
کربوکسی
FS
تمو
##iro
##ban
##FP
##آنا
##طا
##الاری
اوور
##رکار
ایون
نیلی
مردوک
##منش
اتان
ورای
اندود
قبضه
شیان
خطاها
شاهنامهٔ
##اگه
شمالگان
##سونز
نگهدار
گریمز
گذرگاههای
پیادهرو
مونپ
اِس
۱۲۸۹
مشروطهخواهان
ترکمنها
سعدآباد
بیکینی
شهابسنگ
میمونها
اگزیستانسی
داز
فوتی
پوسی
کایت
کروپ
##بالی
##حص
درنگ
##ومئو
فرغانه
امد
##اندبی
##برای
اکولوژی
آذرین
آیچی
ناجی
##نوشتهٔ
پاشیده
پلیمراز
بغلان
##ِناِی
اعوجاج
HS
چابک
گزن
یالهای
##حرف
##الاصل
##السلطان
سردهای
دادسرای
آبکاری
##ines
##طورس
معما
سنگنب
عملگرهای
طرفهای
اوربان
ماسال
عبدالمجید
##ثیلی
سخنانی
بایاس
کنگاور
لاکت
جاسک
تظاهرکنندگان
پرکن
برگزیدگان
بالاخانواده
گروگانها
نورتون
سکانسهای
شعبده
گرویدن
آیل
الاح
جولان
غصب
کولو
##ME
##ؤاد
##یتن
گرسنه
آلدر
زیرت
افسی
اقرار
##بوع
نقشش
مستع
بعل
گیلی
صفایی
##led
تبصره
پوکر
۲۹۲
۴۰۴
ساسکس
##کیدو
۳۳۲
گذشتههای
کاتولیکها
##oud
تیتان
۱۷۸۱
بزرگراههای
فرسودگی
##کینگهام
مجسمهٔ
نوترونی
Paul
سرنخ
پیانوی
آیمکس
آشکاری
##چههایی
##St
باهنر
آمال
پرباز
اثرش
مارهای
حوزهها
درختچه
پائولی
تانکها
گورکانیان
گانگستر
خمپاره
ED
Lang
طوس
قات
##وآی
##مکان
##بُ
##جیل
نیگ
ویول
##وردا
هرشل
بینام
اقسام
لیبریا
جهانگردی
##نامههایی
یوتیو
فرمولهای
داروخانه
۱۲۸۷
اذان
مولیبدن
میسوری
بیاموزد
بگریزد
سیرالئون
سوران
نذر
##۸۹
##ester
دوه
نوینی
##کتاپ
##نجار
جامو
تهمت
مرگومیر
##ette
جمعبندی
##هیب
متحدین
نفوذپذیری
سندروم
مخاطره
رکابزن
راهحلهای
Mil
Medi
Sum
##ینشده
بها
ارتوپ
##عدل
پرانتز
##اخوردگی
ملیتی
کلنی
##کارانه
خانواد
##rim
سوییس
شوکت
درآمی
مولفه
پولهای
۳۲۷
۳۴۲
داوینچی
اتهاماتی
تفنگهای
Art
پاشید
فهمیدن
حفاریهای
لوسیوس
اسکورسیزی
جسورانه
عنبرآباد
رفراند
احمدرضا
PL
ممیز
کبرا
##سیست
پردههای
تمثیلی
##وفون
نورانی
اردستان
ورزشها
تالارهای
استانداردی
۳۰۰۰۰
بوتهای
کامپیوترها
مسافتهای
معلولان
پلوتارک
##گسیخته
موقوفات
آسا
بسم
لودی
کائو
##87
باکینگهام
برجی
کردار
کرباس
الویس
دستن
اشیایی
بازوهای
پلیست
تابو
وزارتخانههای
دنیاست
حاصلضرب
خوردهاست
وینر
فریمان
لیسا
هلندیها
ساندرا
دهلیزی
راندند
میشناسیم
واترلو
white
آلکساندرا
عواطف
Ala
زئ
شفاع
لونگ
کیری
##دوست
##یلدا
شدگی
شهرتش
الفاظ
۱۳خانوار
هرمن
پایانههای
دربارۀ
اسمش
##rab
احساساتی
دشتستان
##over
##ube
اندرسن
مظلوم
لامرد
فهمیده
اشنویه
سنسورهای
داندی
##وظ
##شاپور
##خمی
##ər
##ին
##لیفت
اینور
ویزای
راهزنان
مردمش
دلال
##omet
##تاژی
##باغی
بسوی
چرن
پیشرفتهتر
##ودرمانی
میخواهید
قنطورس
فرضیات
تناسخ
##ollow
HTTP
فحشا
تسنن
اعلیحضرت
sy
بیدی
جاپ
مِن
##vo
##امامی
##وموری
اوجی
دوور
نوستال
بازج
خدمتکاران
اعدامها
مذاکراتی
نگرانیها
۱۲۸۶
چوگان
متحدانش
مکزیکوسیتی
املش
Mad
آوج
جارو
خیاط
##ِز
##آخ
##ُک
##ْک
بهجا
آمیت
موزی
##افورد
بدخیم
##ایدن
شیپور
۱۲خانوار
سینهای
گیوم
بورژ
خلقی
وینچستر
سایهٔ
گیتس
۳۴۳
۵۰۰۰۰
رامسس
قصاص
مزیتهای
علینقی
H2
main
آچ
فود
كرده
واند
##رئ
ازنا
آنفلو
پربار
اسپکت
شاخک
سیمها
چارلستون
اشغالگر
اخترشناس
رؤی
مینیاتوری
لحظهٔ
پروانههای
ابهامزدایی
ندهند
استثناء
توئیتر
مبالغ
else
ژوپیتر
01
number
ذرهای
لوقا
##ارده
انزو
روکو
نوپا
دانهای
اتن
قبطی
غیرواقع
فیگور
##طیف
##uter
روایتها
سرماخوردگی
ساکرام
نجیبزادگان
نمیدانستند
تشعشع
فدائیان
##ordinates
بونگ
خویی
داسی
##37
##زمهای
##خس
##خز
میسپ
موبد
ایدهای
دیونی
مرث
اقلیتی
دوما
##ابلانکا
##گرید
چرچ
ارزروم
آتشک
رابرتس
ریزپرداز
ارجح
مخابره
هاپلو
سهروردی
نگرفتهاست
کندهکاری
بدبختی
فراصوت
تعزیری
بئاتریس
RA
Sz
گرید
##ظیمی
میدر
کمآبی
بینظمی
اصلیاش
مارکوف
سفالهای
مشخصهٔ
سبکها
فنیل
چارچوبی
۳۶۳
##oci
سگوندا
پذیرفتهاند
بازخوردهای
الاصل
تانکر
سخنگو
حاتم
منزله
fa
we
تانی
جایش
رزی
صاع
طنین
چارهای
##سلام
میونگ
کارِ
دورههایی
آبخو
##گزین
کورلئونه
گستردهترین
مختاری
مخاطی
پذیرفتهاست
زرشک
حوادثی
۱۷۷۴
همدستی
رگبار
قناتهای
لیزرهای
نخلستان
گالیسیا
seats
گیجگاهی
سالرنو
##صادق
مگاپیک
Template
SR
بشناسد
۶۲۰
##cal
##گهی
##کیا
برنو
##یتیا
اموری
سرپ
البر
##فاژ
مککی
نسبتا
ناچیزی
هیئتمد
آگاتا
کالاهایی
ماهوارهها
August
خرافات
DH
فؤاد
كن
##دف
##44
##ضلات
دروزی
استلا
روگن
گرفتم
ورت
حسگرها
ماکیان
گونتر
کارآمدی
خطیب
سوارز
فالز
گردهاف
آدریاتیک
##لمنیا
خودسرانه
انفعالات
بشی
١٩
##واب
##سابی
##پزی
##کرک
##۴۹
##yt
##یموس
دورترین
افکاری
##ومیست
مارون
همانندی
##کاکی
##چیچ
##چیها
ابتدائی
زندگینامهٔ
نابال
پیامبری
بندپی
ماکار
هالک
۶۷۰
میرسیدند
آرتاش
چناران
کاراکترهای
لنزهای
آبشارهای
کثیری
ماسیمو
AV
Ke
Ul
ru
هگ
##۵۷
آنسوی
##روده
برایم
خوآن
کاناگاوا
مدیری
تعدد
ابتکاری
صفاریان
رومانو
رستاق
فورتونا
کتیبهٔ
met
ایدی
##ستور
##اتسی
فراست
امآ
نواده
الفی
آزبورن
کلیشه
میلیونی
شوپن
مونو
عکسالعمل
State
##ific
الزاماً
ناهمگن
##اپرستی
مستضعفان
ملودرام
ATP
Ra
Sn
USA
you
لورکوزن
کتل
##ستید
یکس
آمونیوم
کارین
بیشک
گرنت
اولاف
##ائف
##اوای
تقدم
ایجاب
اسلشر
کاتولی
آکرو
شبهقاره
اچآیوی
تابستانها
چوبهای
دوربینها
مگنت
۱۲۹۷
معیشتی
اوبونتو
روتردام
عبدالعظیم
marker
Legend
ترومپت
میاندوآب
##۸۱
برنه
پانل
پیونگ
واقعهٔ
##وئیت
انتشارش
چینهای
تواناییها
توزیعهای
دونو
ونسا
##اپذیری
برانگیختگی
رنگینکمان
نوکلئیک
ساترن
مینیاپولیس
Play
TH
تدی
دالتون
##iat
##BI
بردارند
##ابادی
آنوم
##نگو
مدفن
آبوویان
غیرار
دسکتاپ
بلوکی
ناظری
۴۰۶
پیمانهای
اروتیک
الحسین
همسود
چالشهایی
۱۲۹۶
۷۸۰
اسطورهها
۱۷۸۷
کیتس
دولتشهر
اوربیتال
لوایح
Dr
دلاو
گِل
##ئیک
##ژیل
موشن
نیوف
قران
دورا
آلخ
فرهنگسرای
اختلالهای
هالند
رادرفورد
##reek
منحنیهای
زیمنس
بیندازند
بفرستند
بورنموث
زیگموند
آنتیبیوتیکها
نکوهش
ولنتاین
Est
سابر
سولا
نشتی
نرده
##خانیان
##ینر
بهاره
##ابیا
منیر
سریر
##اخور
اته
تنخ
مهل
دلب
##ومتریک
سوماترا
هفتهها
بحثها
۳۵۲
۸۰۲
گرانتر
##ape
نژادپرستانه
جسارت
تاتیانا
سمینار
Super
آمریکن
بوتسوانا
99
Ka
Tool
world
عفت
چچ
##lish
##han
##ویلا
##روو
##اسن
دیاس
همچین
##جهانی
موردنیاز
نسوز
شهیر
شهابی
کاتس
هندیها
راستهٔ
##نهایمر
سانتاندر
بستهای
تمرینهای
شینتو
پدال
چاقوی
خفگی
لجستیکی
وثوق
کرگدن
استمرار
مشگینشهر
pos
حقی
نهای
وسای
ژیان
##نمی
##شون
##TE
بوق
رودلف
##مرغان
چشمهٔ
جدیت
موجبات
درونمای
گزینشی
Amb
برچسبهای
استالینگراد
##رسانهای
1978
آرباکل
دوسالانه
مونپلیه
پلیستوسن
Bur
Dem
Ol
PET
Ար
خارک
رانت
لمان
کتون
##۳۹
##نورد
##بَ
##UR
##ولاک
##اریوس
##وتسکی
اسمبلی
##اشویلی
دارلینگتون
کمودور
هرس
##مدا
پروفیل
##اجانی
جیحون
1982
تکنو
آشنایان
پریدن
۳۸۴
کنفرانسی
##جنوبی
بهاءالدین
تایتانیک
Google
بنشیند
ساکرامنتو
ساشا
ممد
چلیپ
##на
میازاکی
دیابتی
دوایت
کنع
##کتومی
##کرس
بریتنی
ممالیک
جزوه
طریقه
مؤید
تیکت
جلگ
پیشرونده
مشترکاً
اعدامهای
قصاب
نعل
بُرد
عاطفه
عروسکهای
کلنل
چامسکی
بهدرستی
کروماتوگرافی
UV
آریت
تودی
##69
منقب
عمری
بوعلی
نشستند
نشانها
ناگوار
مدارکی
پژوهشهایی
فولبرایت
کودکیاش
بادکن
۹۶۰
بگذراند
تیغههای
##ities
عسگری
ديگر
عبدالناصر
SL
جید
هابر
وفا
پگاه
##دب
##هد
##َّه
##پاد
##ودون
منجی
##اسار
نیوانگ
کاره
اران
نسرین
زبانِ
ماکی
کاتار
##وینا
حجاری
پورتال
کاپیتانی
انیمیشنهای
##liam
رسالههای
نیوانگلند
FI
بژ
##عاب
##کتیو
بهانهٔ
##ونن
ایچی
هیآن
آراندبی
سلح
پروتئ
ترجمهها
ابوع
۳۱۸
آندورا
طبیعتاً
الحق
یونیزه
تمدنها
آبرنگ
سرهنگی
لوتون
امپریال
دریانوردان
منقبض
00
Gen
ذبیح
عدهٔ
لاست
##view
##غو
##غز
براب
توتون
بیانسه
ویفر
دیانت
##وسین
##اپین
مانشتاین
شاهسون
##ینگا
مارگار
فاروق
مکش
##کلان
##ویتبار
مدلهایی
گیاهخواری
کدخد
گویشها
ناهمسان
گذارده
تحرکات
ترنتینو
سرگشاده
Hen
تینا
حنج
خفته
##گاو
##یناس
##ومنت
روا
آلبالو
چندرسانهای
ورونیکا
##اتیون
تجریش
صدفی
ولایتهای
۴۵۱
ساروج
۳۸۱
نازکی
واسکو
آمیخت
آگوستا
مورخین
۱۷۷۷
استعمارگران
کُردها
میهمانان
Life
اونت
خاوی
رفق
هارا
وتر
پوران
##واد
##حزبی
##جلی
درصورتی
اینف
##ومورف
اماراتی
کارسین
دادیم
پایگاهی
ایتالی
کوهپای
##ental
##raft
۴۸۵
##ناتسی
چمپیون
تقیزاده
سیناپسی
نیازمندیهای
سیتوپلاسم
آلساندریا
Serv
ظال
ووشو
کخ
##بید
##rent
##ser
##كر
##اردها
استاپ
##لازی
ایاس
ایوانی
قرارگرفته
مرداویج
آبل
آبگیری
مصدر
خانههایی
پسرشان
پاسپورت
##irect
بیتکوین
متقاب
۱۷۸۵
شناورهای
دلاوری
گاومیش
بیثبات
Armen
Windows
دوناتلو
خروشچف
کشفیات
براندنبورگ
##َق
##gu
##۷۹
##ؤمنین
##سیلین
##ولسکی
انلیل
متانول
کارساز
راهبری
مستأ
پادتن
کیوی
وزنهای
تکنفره
خورناتسی
بحثهایی
مبنایی
قیف
##ستریا
استدلالی
تغذیهای
۷۴۰
##نمود
هیپهاپ
آلیاژها
پاشش
ارادهٔ
گایوس
آرسنیک
بیوتکنولوژی
خاچاطور
09
Dom
Gold
Tom
car
قراق
##بام
اواس
پیکو
زیره
تجدد
قبلا
کاملترین
معماریهای
برتراند
بسپار
۴۳۵
مجازاتهای
۶۲۸
##وئیست
۷۱۰
لورنت
منزلت
فرناند
مبادا
کاراکاس
فرخنده
قابلتوجه
کامپوزیتهای
تلوگویی
Group
Republic
نمیگذارد
File
کعب
همدم
اسکوپ
بیاد
##مسری
##شنر
##احیه
تمهید
##ami
پایهگذاران
##باوری
عرضهای
##فسبورگ
لاگران
بندرگاه
کاباره
آریاییها
اکسپ
قصران
##گفتار
کراولی
باتجربه
سیستمیک
فوکوس
جاکومو
برومویچ
HTML
تجزیهٔ
سلبریتی
شفاعت
8C
Bab
Fo
رزا
وتو
##har
##yth
##ارزی
میکا
چندضلعی
##گوون
نمیخواه
##کردنی
کاهنده
فرانسویزبان
عملیاتها
روانسر
وبگاههای
مزاج
سورس
نرمی
معاونان
ماکیا
۴۶۵
دندانپزشک
هیپوک
اسپارتا
بیگناهی
سیگما
ناشنوایان
Mel
جِ
ضدان
فطر
##گش
ازهم
فرشهای
##رکزی
##اخیم
کلیف
مخبر
مککین
مجموعههایی
شروط
نسخههایی
##بازار
##اویماق
نفتکش
ترانهنویس
نوریچ
##غناطیسی
کاستن
۷۳۰
بلاش
وسیعتر
ماژولهای
کشیشی
بوسنیایی
زائده
نهنگهای
والدینی
اکوسیستمهای
بیاعتبار
سیلوستر
BP
sil
رندر
##وفه
##انزا
مساله
دوار
سیده
لیفت
کالوین
لهستانیتبار
۲۹۹
جعف
مردانگی
وارزه
طلحه
ناتل
توضیحاتی
هیدروژ
بازنشستهٔ
هیلبرت
هانجا
شادگان
مناقشات
Music
پارادایم
نویسهگردانی
کیمیایی
DR
Fort
تیه
لانا
##نق
##باک
##51
باخته
آنیل
تاش
بیعد
دهلوی
مقار
ملیسا
##سترین
کلیبر
سبزه
اسپای
آماردها
درگیریهایی
پیشرفتها
##aka
حفرهها
شرکا
کوهنورد
##نهاور
مگسگیر
کارولینا
فابیو
400
آبت
دمپ
شستن
هجا
##ئیدها
##ով
##ás
پسرخ
بینجامد
ملیگرا
سومر
مایو
منتفی
۳۵۶
بخرد
فرستادگان
کامیاران
بلاغت
ساقههای
1987
صیقل
میهنپرستی
ناپذیری
میثم
Center
Sy
چاوز
##ویرا
##آت
##يب
کهولت
##ادزه
روایاتی
متدی
کشد
##شنام
##وندن
کمنظ
##بارت
ادراکی
میراژ
بلوتو
حداقلی
##جرود
مارتی
ابتلای
اورس
متعالی
نامزدش
برداشتی
نازنین
غلامان
جستجوگر
یارسان
طبرسی
پرستشگاه
میکشیدند
گرویدند
##وباکتری
##binations
IA
Vel
بمپور
زرده
##رمانی
برگی
##یلندی
افکند
کلرم
##ینگام
مستبد
##وکارد
##rew
کالسکه
مورس
سیمور
##معنی
آقق
۳۴۶
۳۴۱
مهاراشترا
وعدهٔ
کنستانتینو
هیدروکسیل
##گرافیک
تحتالل
ساتی
سندرز
شایر
كنند
گاف
##بلا
##هو
##ظار
همنوع
اوغلو
اندیکا
شهناز
##سانگ
جهانهای
##دنس
صنف
قانونگذاران
پروتستانی
۴۰۸
صادره
تونلی
برگشتپذیر
شجاعی
تظاهراتی
بایرون
هفتادمین
۸۴۰
لورنس
بارزترین
فوکوشیما
پلهها
کافئین
آیزنهاور
برخاستن
پابرجاست
ریپابلیک
Ev
June
sw
بشدت
ورید
گَ
##cz
##پاک
##ضویت
باسن
نوترین
الای
قرارگرفت
بیناب
ملودیک
پارسونز
فیزیولوژیک
سایههای
تولدو
میبینید
روحیهٔ
گدازه
نینجا
مزاحمت
میکروفون
استعدادیابی
آنگلوساکسون
بیعدالتی
66
Data
Lim
ME
ذن
هومن
##شنگ
##her
##حانه
انیس
##گیان
گرمسیر
بالکن
ریحان
بلن
نورعلی
دخترشان
ساکی
والف
فینچر
بستهاست
اپتیکی
ساینده
سایگو
زرق
اذهان
علاقمند
##aceae
کجاست
ابوموسی
##الامپور
شاپرک
صورتش
کرافورد
Dan
Ham
mag
دویس
سئو
ضریح
##bach
##ویتی
اوزان
آمورف
متک
اسانس
##اندازه
ویولا
نامیدن
جایگشت
##نوود
عبداله
۲۸۹
مکانیزمهای
دودکش
سوسیالیستهای
Ste
اعتبارسنجی
نازیسم
لزنر
۱۲۸۰
تناسبی
باهیا
قرصهای
مورتون
دایناسورها
اویغوری
پرخاشگری
همتراز
BR
Kr
آگار
فوند
##گشا
##ارمی
منثور
توسعهای
آلود
##لسویگ
شهودی
کانتور
سردتر
خونس
ایزومر
پیچیدهٔ
لیتیم
alt
آسفالته
Ark
زنبورها
پروانهای
کورنوال
Den
جازم
شِ
قُ
نانی
هشی
##لّه
##شاء
##70
##هرفته
خودک
ریوز
لیف
شوارتز
حسینقلی
خلخالی
سربازانی
۴۰۱
دیواندره
کاستی
گلوبال
تولستوی
کنستانس
##وتایپ
شهابالدین
##حمله
بربرها
قاعدهٔ
نیدرز
کوکتل
جاست
حشر
صع
##رر
##طبق
بهانهای
میوز
##ریتی
##lav
امبیسی
معضلات
مجلهای
مانفرد
بارگاه
##ایلد
آثارشان
فیودور
نمایشگرهای
کالچو
##سلت
دنبالههای
تبحر
آسیبها
comm
دستیاری
۳۸۷
برنلی
هالیوودی
انتقامجویان
طراز
سمیعی
توتال
دوقلوها
Ts
gold
حائل
دُم
ساتو
شاب
##نری
##بح
##O۲
##پولی
##ایستی
میفرو
باوندی
سرحدی
ایری
سیطره
بازان
کلینی
##ندیده
##واجی
رسولان
ریون
##بوبی
مصادیق
حکیمی
##اگوس
اینتراکتیو
##سوسی
جدل
بابایی
ظرفیتی
مؤثرتر
فوکس
##محله
اتومبیلهای
شیمیدرمانی
امپایر
هیپنوتی
صریحاً
باسواد
هیپوفیز
نامساعد
تحتاللفظی
Kin
SV
جریکو
هولت
چنده
##تع
درخور
رواد
امپی
##فرهنگ
##الیف
گراب
کلارد
راهیافتگان
گلدهی
ایتو
##ating
بهعضویت
خرمد
شاخدار
دیدهبانی
دعوای
کوششهای
سونیا
نانوایی
تصمیمگیریهای
حلالیت
فئودال
میسپارد
End
Fri
UC
عریان
لودو
##سبد
##ژون
##72
##ամ
##ندیل
آنهم
مساوات
##اشه
ایرانشناس
##ering
نهج
فصلها
پشتونها
عشقآباد
نیوزیلندی
۴۱۵
نیترید
عنصرهای
کینگستون
دیمون
آگونیست
لیدیا
کشمیری
آلایندههای
شمشیری
شفیع
دکوراسیون
گریمزبی
بوتو
کیتو
##36
##ذا
منوط
امرداد
اسمال
معرب
کرال
بالگردهای
حموی
##تبات
##وکروم
هنگفتی
افتادگی
مالایا
ترکیباتی
چشمپوشی
اورن
ماندلا
ردینگ
نصاب
##ection
۳۷۲
دودمانهای
کویین
حوضههای
1985
Cons
فرورفته
Colle
صراحتاً
news
نقیض
متافیزیکی
نریمان
رفلکس
خاند
سکن
##بائی
##ear
نوایی
کتابِ
آبن
بالت
بالین
رفتهرفته
نمیآورد
##red
##ops
محدودکننده
چاپهای
تایپه
هلموت
بیتس
inter
سلوکوس
نیکولو
کازابلانکا
توالییابی
مستمری
تُن
syn
لانک
کلاً
##خورک
##ایفی
بیق
پسکارا
زیرنظر
اجرائی
ترکزبان
سنبل
خارپشت
بعثی
درمانگر
وضعیتهای
گذرنامهٔ
ابوعبدالله
هلمند
۳۱۹
شاعرانی
کتابهایش
پیشرفتهترین
۶۳۲
۶۶۱
دژهای
پودری
Win
گوتن
##رگی
##ویید
امیه
دستبرد
دانند
بواسطه
زننده
##گوشی
##سانا
علیقلی
مکلف
فروکش
##isch
سابقهای
لیگاند
کمیکهای
اوراکل
فضانوردی
##ility
۲۹۴
1000
##بورگینی
کمپبل
الفبایی
سقفهای
ارگاسم
مزدوج
ساموراییها
پومپی
آلاینده
ترفند
کوالالامپور
راهبردهای
شاهرودی
IF
بوان
##۶۸
##وکه
##رش
##pur
##گوم
بریم
متخ
نوآ
نمرهٔ
پاییند
اقامتی
رسلمنیا
زمینشناس
##inus
بیشترشان
##صدرا
همراهش
۱۵خانوار
بدنشان
موقعیتها
شمارهگذاری
ناپیو
خوشخیم
کاخها
چوبین
۳۷۹
ساکسون
لامبورگینی
هاردکور
##قهرمان
شریعتمداری
اسکرین
بوهموند
فائق
هیسپانیک
نیدرزاکسن
ناپیوسته
RFC
font
آگر
هُ
##اذی
##lit
##ror
استونه
تاکر
السلطان
دارسی
میبد
##انتان
شعرا
بهترینهای
چینش
##olf
۱۳۸۵جمعیت
جداره
آقاسی
سمور
گاهشمار
شارجه
لبهای
هولشتاین
قارص
سؤالی
جعفرآباد
اندیشهها
##کانیکی
گرجیها
پروانهها
چشمانش
هالووین
سندیکای
William
متاسفانه
TP
##چینگ
##صاف
یکجان
رواقی
مدارا
پرآوازه
##ورتو
احت
##شدنی
پیرنیا
پلازا
دریچههای
سامانتا
بوروکراسی
۵۰۹
پردازان
برداشتند
فلزکاری
۴۵۵
غذاهایی
پاتریشیا
خروجیهای
اکسیدهای
۱۷۸۴
گلولهباران
غزلهای
آجیل
کشمکشهای
امریکایی
نصرتآباد
ارزشیابی
سامرست
کفتار
میآموزد
دگرباشان
Arc
Elect
sta
جزیه
هلیل
وور
پوب
یلو
##uary
برآ
فیلمِ
سرپوش
##وسکا
عمید
میرزایی
خواهش
سنگسار
خودروساز
چاراویماق
##بولت
ادیبان
۴۳۸
کازرونی
۱۷۷۸
عروسکها
سائورون
بمبافکنهای
عاشقانهٔ
هیبرید
غزلیات
الکتروشیمیایی
02
Bus
Live
Mer
بویو
ظالم
عُ
نکا
##مصرف
##ّق
##شتدت
ویسنت
دیالکتریک
التی
##ورتس
محدودهای
ویژوال
تیول
رادیوگرافی
فیلمنامهنویسی
##سپور
زیباست
تیرهتر
مقرنس
قایقها
۴۷۶
نیتریک
هولاکو
۹۹۹
کاردین
مکاتبه
گرامافون
یخچالی
ناکارآمدی
Long
لف
##دانی
##خشک
بوآ
##شهدا
یادگرفت
آخن
نوشتارهای
سوئیت
جهتدار
دامها
جغتای
کرمانشاهی
##owa
قیمتگذاری
تونلهای
بیدل
۵۵۵
لزلی
رنکینگ
میپوشیدند
سرمایههای
پیشتازان
رباعیات
بلفاست
جازموریان
Imp
دوتا
زي
پریت
گودی
گاگ
##ár
##ör
میابد
راجستان
بوقل
اشپر
بارانهای
##ولیو
##بنای
فروبست
نورآباد
اردلانی
تفاه
مورسیا
هیدرات
قراردادن
باریکی
سرمق
باربادوس
Bal
Ros
ائوسن
دکن
فئ
قندی
ماما
ژوزه
##ولید
##پیت
##ابهٔ
پیگیر
جمیل
سرورها
گرلز
نوای
کنتن
جهل
بدفورد
اسپلیت
میلیاردها
لوزی
##olo
۵۰۵
عثمانیان
فریدن
معتز
۴۲۷
مالیاتها
آنتیاکسید
۸۷۰
آرکید
اسنپ
قالیبافی
بهتازگی
کاراگاهی
مکنزی
کردهبودند
مقایسهای
ناباروری
Cam
Lu
سکت
پونه
##زنگ
راغ
سرژ
##وسلاو
شکایتی
بنر
##لسه
سلما
شمالشرق
کرید
الیزا
باقیاست
پولاد
ماریوس
فریده
مارکز
توافقات
برناردو
طرفدارانش
پیاچنزا
لحظاتی
فاجعهبار
ماینتس
زمزمه
کهریزک
LS
Tel
Wal
زکی
صرافی
کتو
##ماران
##گها
##پاش
دیاب
آلکیل
##اوینی
دلفی
##dic
##اشیان
توربوش
سامانهای
۵۰۱
گرمترین
امضاکنندگان
قومیتی
ملاصدرا
March
ئیپی
دلسوز
احمقانه
سینسیناتی
LD
غرف
لوف
ونتو
ومبلی
پف
##اوان
##ّتی
##جثه
##40
##سترو
بهعهده
##ومار
فرارا
##وهد
ادیت
بازنگ
انجامی
##orth
سهیلی
نیروانا
نشانگرهای
##گوشت
اسپار
سدها
کوچی
فقره
##سالا
تسمه
وبستر
درخواستها
انحنای
آستوری
پیتسبرگ
فاطمیان
خبرگزاریهای
ببینیم
همتیمی
بازمیگرداند
وینچنزو
رزونانس
03
BC
Web
الاق
رجوی
فریک
کاتر
##earch
##vers
##كن
اسنی
الاز
دهات
زمینهایی
##پرین
سلم
جزایری
افزاری
تکواژ
کیوشو
یادمی
قهرمانانه
دینا
مهرجویی
##رزاق
##eder
چرخاندن
آدمها
۵۹۸
جنایتکاران
مجسمهای
کشمش
مغایرت
چزنا
حرمسرا
مغالطه
SW
cap
داره
ضامن
##ument
##خاط
##کیها
##ونیکس
گروت
میکردیم
ملزوم
همانا
اسکول
##oda
سعاد
تلویزیونهای
نبش
حسابدار
##ado
خوشایند
دشتها
۳۷۶
مخصوصا
ارکیده
جلبکها
مامایی
مقبرههای
سربداران
انترن
صیفی
اوپنهایمر
درآمدهاست
کارآگاهان
شگرف
آجودان
آدانا
نابه
##ced
دراکولا
بریس
آنیتا
##یمو
۲۰خانوار
##وزومی
تیمز
تمشک
ریوند
نقشهایی
درگذشتند
تورینگن
##olk
برادرز
روانگردان
والنس
سیلویو
##اتورها
##سکوپی
دودمانی
آتاری
اولیویا
مدرسههای
زمستانها
۳۹۲
##سنگومی
کویتی
الکترودها
##گزاران
تذهیب
سرمایهای
جاهطلبی
جودیت
شمیرانات
برافراشته
لوبی
هولد
چمدان
##ورسکی
تائو
نیوت
##وشیتد
ریزه
چهارباغ
##صدایی
بیشاز
کیانو
پسرها
انقلابهای
راکفلر
تامس
خیرآباد
ریچاردز
نیکوتین
دالاهو
مگاواتی
Union
کهکشانهای
Sport
زهک
توهینآمیز
زاغهای
دربردارندهٔ
پپتید
ماکیاولی
والفجر
Arg
مانس
کازی
گرک
۸۲۰
##نهٔ
ازلی
##esent
اسرا
دستنوشته
مقیاسی
پرشمار
پایا
اولریش
کوتی
##ستهاند
##بولیت
بلدیه
##ودیان
شاهدی
##شدند
اسلحههای
##rip
نجار
پیوستهاست
نارس
۳۴۸
۳۸۶
خردادماه
لیکس
ساندرز
والتون
زمینلرزههای
mono
صاعقه
عدی
یوست
##شخص
##جیک
استوکس
##اختن
بینال
##وهیده
کوپن
بالههای
جانبازان
جولیو
فروتن
آمارها
رایو
1986
میدلند
مولن
امیرالم
نشدنی
۳۵۴
۳۵۸
مارتنز
خاوران
راموس
گاوها
شینسنگومی
۱۷۸۶
خانوادههایشان
##iana
اجتنابن
جولیوس
مکارم
نیوفاند
AG
Hel
بلیس
ترکت
##چسب
##بخت
##کُ
میپردازیم
##ونک
روابطی
ارده
واقعنمای
##زارو
فرانسویتبار
خوانندگانی
مغازههای
##سوکه
۲۴۰۰
فنرب
دوستداشت
رضاقلی
۳۳۹
ریشارد
تنیده
میوهٔ
فرضیهٔ
باکیفیت
الوهیت
استنشاق
خصل
فلیپ
قاس
##چارد
##۵۱
دوگ
اشکن
هنگکنگ
نمیبرد
ولیعهدی
##هنشین
دخترانش
عباراتی
۲۹۱
رزولوشن
هاروتی
سیلزی
گشتهاست
پیمونت
نهادینه
اندیشمند
رابرتسون
۳۸۸
140
مصوبهٔ
درخشانترین
مناقصه
لوسین
News
زیمر
اودینزه
سارگسیان
ژیزمان
مسبب
بلوتوث
Off
mid
دونا
##اتای
انها
متمدن
سرتیپی
##کسان
پاراز
شعبههای
##کافت
تفحص
اشتها
ایمون
والس
گریبان
##osp
سرودهاست
دیوانگی
ونسان
سلیمی
بدهکار
##جینال
گرافیتی
۴۱۱
حاجب
##انزویک
مروج
ناهماهنگی
اسکناسهای
خاقانی
آلونسو
پوتسدام
فسیلهای
##چهره
##فناوری
##PG
یکسری
سرشت
اشرفی
تنفر
##بهار
آرسیای
تعص
تعلی
ماهید
مماس
کورتیس
ضدحمله
لحنی
ماتریسی
۳۴۷
انفورم
شارلمانی
شادمانی
تصادفات
وصلت
حاشیههای
توفند
ندانم
پستمدرن
رؤیاها
Os
ext
ثقفی
فصی
لنس
گغ
##۶۲
##lis
##TF
##PC
استافیل
نیقیه
نوکی
ترز
##وقفه
اخاذی
۱۶۵۰
گیگاهرتز
میدلز
##uman
حریری
۳۵۷
۳۷۸
رستمی
درمیآید
##اغچه
مییافتند
##ethod
پرترههای
شیفتهٔ
زامبیها
دسیسه
پاسیفیک
اوئهسوگی
Dig
mo
اشته
فاسی
##آذین
بافق
##ادند
امنا
محصل
مردها
ترند
افشان
کلت
اثرِ
##rich
همهی
ساوند
ضدت
فضایل
مریض
نگرشهای
غلامی
تکنیکهایی
بدهیم
##ova
مالزیایی
اومبرتو
هادس
غنایی
درایور
جاکوب
صمیمانه
فلاندرز
آرگومان
هدایایی
غیرواقعی
EN
IM
sup
حف
دئ
میسیون
##ریها
جهی
کیلوب
۱۲۰۰۰
صدابرد
تیش
دینام
ماریانا
وظایفی
بدینترتیب
چرایی
۳۶۹
۳۶۴
پیوتر
ونک
دبیرستانهای
عشای
هیپوت
##iano
دوبیتی
نوشابه
ایندپند
##ناپذیری
لومباردی
متصرفات
نیویورکر
پیمانکاران
مکدانل
تیکتاک
get
داپ
فایت
کماند
کیرا
گهر
یانی
##چنین
##شلی
##حید
سرنی
دهنو
کمد
دادهشده
کانتونی
##باتان
دنیپر
فریبیاسدی
منشا
بازنشر
۶۱۸
اونو
۷۷۷
گزینهٔ
آیرون
بیابانهای
آنیون
کولیها
لوئیزا
جعبهدنده
ببندد
غیاثالدین
متزلزل
Michigan
تشعشعات
Mas
##well
##يخ
##امعی
##امینی
فیلها
املاح
خودتان
تاور
کارخانهای
##امیس
نشستی
اقشار
##نجا
خوانسار
پاساژ
کاتالیست
موضوعهای
##roup
ضربت
محکومان
۳۵۹
اظهارنظر
موافقان
درخشید
۶۲۵
میخواستم
مکملهای
لوحهای
معصومی
آنتونوف
مربعات
بیمعنی
اقامتش
جروم
حَ
##رل
باچان
روض
المر
##کتهای
علامتی
آبخیز
نیرنگ
##شدهی
تیرههای
۳۶۲
۴۲۱
صدرالدین
نشریهای
##وساوا
بامبو
ندادن
ساینس
استونهنج
Alex
دکان
دابل
##یاما
##én
برشهای
##ادله
بیسیک
بیوقفه
دیکنز
واقعگرایانه
اولتیم
اجارهای
سلین
برگامو
همرفت
دلنشین
کوچنشین
##انتینو
صفاری
آذین
##وندهایی
باورن
اشکالی
واژههایی
شارما
۴۴۱
استونیایی
۱۲۹۳
چایکوفسکی
نقصهای
پارتیزانی
مجددا
دریمورکس
کلاردشت
نیوفاندلند
فنرباغچه
74
MR
Yo
جده
ساره
غف
مبین
هایشان
چقرم
##۶۷
##چیر
درهها
استئ
##اتاق
راث
آنست
شدنی
##اسحاق
کارتی
کارسون
کمانی
جنسیس
پرسه
بازهم
کوبیده
سباستی
صدوق
ابنیه
لوکر
حالتها
کاتلین
شعرش
مفاخر
محافظتی
ریاحی
##chi
کومله
آتیلا
خاورشناس
سوءقصد
سینهپهلو
بلاغ
جمالالدین
منقول
حکمرانان
Instit
تنگاتنگی
ابرنواختر
نعمتی
Lab
Sha
long
بپ
دژی
فویل
یم
##وجو
##بارد
##UT
##جنت
دوج
ترون
زنش
##ori
ابتهاج
کوتا
حکومتها
معروفیت
مبدا
قبیلههای
ارزیابیهای
۳۷۳
کامیونهای
۱۲۹۴
۷۶۰
لیورنو
کاندیداتوری
ماورای
توحیدی
انیشتین
دستنشانده
ER
##LL
استیر
سالنامه
سالمون
##هراسی
امرا
##اختیار
بوج
مانش
ریالی
##خوارهای
طبخ
فلوران
##ویته
پاسکو
جلوس
تیربار
##ilio
آینهای
۴۰۷
مونومر
مریلین
۳۵۳
۳۶۱
همانندسازی
صدرنشین
نیلز
رؤیت
۱۲۹۵
الکترودهای
منتهیالیه
۱۲۷۰
مندز
##يري
چسبان
ویکتوریایی
الاتحاد
هموطنان
ژئومورف
اسمولنسک
استافیلوکو
68
GT
Hot
Rich
آهی
جاها
##۶۹
##ینته
##یرنگ
بايد
##امار
بردهای
برتا
##اهت
توئی
بخشبندی
افی
کلنگ
کلاله
##پرم
##aro
نمیخو
هاگو
اوراسی
##اسموس
تیرگی
متعصب
رشتههایی
زمرد
۳۶۷
برنامهریزیشده
##سواران
کامپوز
پیترب
۸۸۰
فریتس
سناریوی
همپیمان
Eur
disp
آتو
آپل
خَ
عشر
قاد
وانو
##طین
باطن
یکطرفه
##تراپی
روپرت
متواز
یاکو
ویشی
##بالدین
اربع
دهنه
##عهدهٔ
بنویسند
واچ
نمیگرفت
##گینز
تیفانی
پوکی
ویلچر
اپوس
##apan
مردادماه
انبارها
الاغ
Science
کهنهسرب
پازل
نیایشگاه
مرثیه
69
تریف
رشتی
ناکا
وفق
ووئل
یین
##نوک
##38
##76
مسقط
بیخوابی
مرمری
کنجد
##اپوس
پرات
اولدهام
##ندیشاپور
ریشی
داستایفسکی
سدهها
سفالین
نورماندی
نوشتههایی
مایعی
خدمهٔ
امورخارجه
نتایجی
ادعاهایی
نیاوران
ناوار
اولیهای
بولدر
چاهها
دانشمندانی
مأمورین
مُهر
مجتمعهای
طلبانه
کلارینت
const
گانگستری
گاریبالدی
Illin
راشدین
Department
التواریخ
ویارئال
ارتوپدی
انفورماتیک
first
max
بين
دکم
ممیزی
۹۰۰۰
##طبه
##ایوشی
اناک
کاراپ
##کیج
نوهاش
زیرب
شکاک
##ones
##پرهای
دومنیکو
کوچههای
کودتایی
ولادت
موران
منظمی
عناوینی
اسلامشهر
مخالفین
تراویس
##ovka
۹۱۱
خمش
Max
##وریازیس
امیلیو
میخوانیم
مایرز
الرشید
پاستا
عمادالدین
اغراقآمیز
یغما
معجزات
Mill
Van
بولد
شوه
صنو
یای
##mar
##tr
##هوا
##LD
درازی
درجا
##الشع
##ورر
##اهید
ter
ایپس
##اختگان
ارادت
##اولی
پرومو
##ایرن
مارو
خارکوف
۱۵۲۴
۱۴خانوار
ترکیببندی
ماندنی
##ache
##زنبرگ
اخترشناسان
۳۹۴
قرهق
کرمها
گذارند
زرافه
میفرستند
هتلی
عدنان
غیرمسلح
دراویش
مننژیت
بوقلمون
EB
Log
Sim
Top
آولینو
بویس
بسا
جِی
قطور
لکل
##چاق
##UN
##الگو
راشل
محبوبی
نسا
آرنو
مصائب
لیپی
یافتهٔ
##یندون
مشخصاً
##una
۲۲۰۰
خبرهای
استادانی
ایلان
رزن
uses
کُل
ستارخان
عمیقترین
۱۲۸۴
۹۳۰
کرونر
چسبنده
کورتنی
مینوشتند
المنافع
صمیمیت
سیندرلا
Mu
شیند
هریت
##O3
##۵۴
##fa
##ایص
##یلان
همایند
##روند
توکن
سرباره
معرق
بیفای
##نیاس
ترت
زیرلایه
##لوش
##پرز
##ائیت
گلین
اسپت
محمدکاظم
باغبان
اصلان
گوشهها
نرفته
قابلیتها
مرتع
افتتاحی
لاکر
##rand
۵۲۲
اسپرز
نیلسن
نیکولز
ژرمانی
then
همایشهای
##ودینامیکی
اگزوز
گریگوریان
Micros
آنهالت
نگذاشت
چرخدنده
اوستیای
دربرمیگیرد
نابالغ
هیپنوتیزم
Illinois
Sant
sum
##نوردی
##زرد
##ضد
##ورنو
میادین
استقر
سالهاش
تاکی
نامند
دوبی
مجرا
پسوریازیس
فعّ
##بلر
دینور
کرومیت
نوریس
داوکینز
حداکثری
تپش
جاسوسان
مؤلفان
بارزانی
کافمن
لنفوم
جاشوا
تابیده
Oct
آسک
ایدا
قت
نپای
##yan
##انوی
##یلاک
##یدار
امول
ارعاب
اعج
پرها
##orp
##ملر
زمینداران
تقصیر
فلورا
هدایا
۲۱خانوار
گزارههای
مغرور
محلاتی
مدتهاست
گشتاپو
پیمانه
۳۵۱
خامنه
حقیقتی
پاتوژن
##evel
شناختهشدهٔ
هاینز
آیزن
آرواره
نغمه
05
تسی
تالیا
جینا
خصی
درت
بریدگی
##گاهارا
##ادیو
##اقان
بیآنکه
##برفی
##درز
میباید
تصنی
تلوی
آسوشیتد
۴۰۲
هلاس
میلیاردر
##ister
گالئات
آریست
کوبهای
۳۹۸
۶۵۶
تاتارها
ودایی
هیکل
چقرمگی
Pet
بسازی
رینا
فتق
##سکن
##hm
##يار
پسام
##درجه
##بارز
##زهی
ماریت
سریز
شعلههای
##سنر
##omy
عقبه
ایستوود
متواری
سرکوبی
##العمر
۴۸۴
۳۹۱
۸۳۰
سوسکهای
میشدهاند
دهیاری
بهواسطه
کلارنس
صفیالدین
سوئیچینگ
چنگیزخان
غوطهور
Cur
RC
دالم
سِم
کودی
##ذات
درِ
میشوید
تاکه
ویجی
هرالد
##انسان
##کتا
##انووا
##لساز
زبانان
##بداری
تجمل
جوامعی
فارل
فرومیر
##olution
تیویان
##نزاده
خدماتش
کلاچ
ابوذر
گشتاسپ
کاپا
مقدسات
آدینه
بهدستآمده
۴۲۸
۴۴۵
##طبیعه
۵۳۸
خشنود
Phil
خوارزمشاهیان
پربینندهترین
مغازهها
الرحمن
خربزه
چسترفیلد
آره
تارهای
راما
فاخر
##سمان
##فاوتی
##لیال
فراب
نیپون
مسک
سرنا
مرقد
مردمس
##منا
##کتاب
##ایتو
تیمبر
آرگیل
فلچر
پارو
مسلمانی
##اسرای
آنجاست
بابلسر
##والا
##سفات
الفها
بدهید
خوابیدن
۶۵۵
جنایتهای
معلومات
اسپینآف
دوقلوهای
USB
اقلیدس
my
mul
سارات
طحال
قوز
هشتی
##صله
فرسنگ
##نگاره
مرام
##ینیون
گردشی
اختلافی
ارائهشده
۲۵۰۰۰
باغملک
پیامرسانی
اپوکسی
گودرزی
برمیخی
بیهار
۷۷۰
ساوجب
گلوک
هرکسی
state
##ample
بعثت
منوچه
صمغ
##ودایرا
کنتنشین
Fer
تسل
حیا
خونه
کسان
گالیا
##رتی
##يق
بادم
برایانت
##لاغه
کارگیری
آغا
شیخی
افراز
بیمهرگان
فلای
اکتفا
عبارتهای
سیمانی
آسکولی
دوستدختر
ایدههایی
ایزوله
۴۵۷
نانومتری
کوبین
۹۱۴
تکنولوژیکی
مزرعهٔ
##obal
شریفآباد
واکسنهای
آمیزهای
##کیلومتری
مادامالعمر
ارتعاشی
نوکلئوتید
خجالت
پربازدید
صنوبر
Hor
SE
Sar
squ
##ui
##طحی
##DB
میمند
##روال
##اسکال
موسک
##ادیز
بیاسدی
ویگان
عموز
علیمردان
تورپ
رومرکز
##unn
ایمپ
گریفی
عبدالرزاق
بعضیها
نرسه
۳۶۸
۴۵۸
سوپرمارکت
سوسمار
شجاعانه
لیوینگ
ضمیمهٔ
نهنگها
الشباب
1395
یاقوتستان
پرطرفدارترین
##ydro
تارکوئ
soccer
بازجذب
روادید
follow
جیره
مفتی
##نوم
##شیدی
##یرک
##وریل
انر
کارلا
##قیس
کمپل
پرگ
میبل
زیاری
چهلم
احد
آبرو
##ارتفاع
مصراع
##ارکا
علیخان
نمیشناسد
سفار
جداکننده
نجاری
مناسبترین
کنندهها
لسلی
ins
رحمی
۳۹۶
۶۷۵
رولند
بیانیههای
کارگاهها
جولیانو
##ژانیرو
بیحسی
Great
وارونگی
Module
مارچلو
اوترخت
حنجره
متخلف
62
Ox
پالات
##آرک
##SL
##کارت
##حسینی
##شتههای
معراج
ویست
##گیه
دوبرو
گرگور
رویای
##انکاری
نیمهر
##ions
پاچینو
بیتفاوتی
پیچیدهاست
آوازخوانی
کاشغر
جسدش
لازار
مرجعی
میسرود
تالیف
بورنئو
قاعدهای
متوازن
CI
MRI
سیره
صلب
ظرفی
نزه
##zen
درفش
افعی
شناوری
کودهای
سلنا
شبدر
مارگون
کانالی
انسانهایی
خودروهایی
اصطبل
پولاک
پهنا
##آنزا
۴۰۹
ویلیج
اهدایی
تکرارش
۳۷۷
وفاد
۶۹۰
نیروگاهها
ریکو
فقیهان
تلسکوپهای
آلمریا
اکی
بُر
جباری
##گما
خودرا
نیکس
نیابتی
انگشتر
بازپرس
کلودیوس
تمپ
گردنی
ماهگی
اسپانسر
رودر
منتج
زیستشناختی
بورسا
الههٔ
آقاب
۴۰۳
فینالیست
سرکار
کیلوگرمی
کامیابی
ساکورا
شصتمین
Academ
دهلران
مقالهنویس
میدرخش
باورنکردنی
CV
Ep
God
Lin
ML
MV
Sl
سزایی
واره
میپذیرفت
##ابنی
منوی
انسی
متاست
التون
سیگل
دستبند
مقید
کلوت
بدبینی
گرداند
##نتیو
تیبری
مورچهها
شاخصی
##لیتس
توپولوژیکی
۴۵۰۰
۳۴۴
۴۸۶
۳۹۹
مصاحبهها
تهاجمات
شگفتانگیزی
گلوگاه
ووستر
مندل
۱۲۶۰
اشعری
برخاستند
خواهرانش
اکونومیست
رفراندوم
اتهامی
بینابینی
cm
وستر
##FT
##ор
##ارسک
##یناپذیر
انباری
خودنمایی
مرغی
نواف
نظرهای
مصوت
ایجادشده
##نامۀ
شکلدادن
##بناک
##oli
##باء
مورینیو
محمولههای
الیسون
تایسون
پرتودرمانی
محکمه
لایق
مونتی
##پورتر
اچمی
چالشی
مرتد
چهرهها
۶۴۲
۵۳۹
۵۱۸
۸۶۰
گلدوزی
ازبکها
چشماندازی
مودم
بطنی
یلدا
پرمخاط
واقف
هادرزفیلد
میورزید
همینگوی
وسایلی
بیفایده
Dis
FM
قوری
پونی
##طهٔ
بهحساب
ازن
اسو
نوسانی
ترای
اوله
بدبین
##ابراهیم
قبور
برگمان
وقایعی
##نوج
۱۶خانوار
آیپد
بورگونی
ماهیگیران
نیمهعمر
داچ
۳۷۴
۵۵۲
چهرههایی
متمایزی
تلاشهایش
سپهری
لردگان
بوندستاگ
پیشنهادهایی
ورشکسته
##actor
پرخطر
هیولاها
تکتیر
نئاندرتال
بوخوم
آراگاتس
بیگلربی
مکاشفه
نماندهاست
نپایید
جانک
ریکا
لویو
میپرد
##هاشم
##گرل
سیبی
آلوئ
افرو
##کوزی
ملکم
یواخیم
۲۳خانوار
سیمونز
مارتینو
بندپایان
تجهیزاتی
۵۲۸
Alb
هرمزد
حاملهای
Marc
واسطهای
Book
نامتعارف
کبریت
جاجرم
نپالی
بیاعتمادی
پیتربورو
110
Kam
##گوا
##52
##ينه
ایبی
امجی
امبروز
معتص
بیپی
دیگه
دوسر
کرچ
نظاره
جنید
##کتاش
ورث
میزانی
##ولوژیست
حاصلخیزی
فرارود
قالبها
اثاث
سمنگان
عروج
ماتیلدا
سوختگیری
تضمینی
منشوری
کولچستر
تروآ
توییت
##َرْ
ریمان
وحشتناکی
آفتابگردان
غلظتهای
دهکدهٔ
سوادآموزی
امپریالیستی
##rown
بریزبن
دایرکتوری
فتوولتائیک
پیغمبر
Good
زالت
##شاید
##ен
##ла
##face
##ردان
رسانهٔ
##بردن
اکباتان
##یندل
نیستیم
آلبا
صدساله
زادۀ
ویلر
نمایندهای
آدلر
بقایی
##سفال
فورس
هیلتون
دروازهها
Alt
وامواژ
آلودگیهای
درآمدهاند
وارثان
امیدوارم
پروانهٔ
##ودینگر
ثانیاً
صمص
زیورآلات
دیالکتیک
ابرکوه
الازهر
78
تریم
جدار
خزه
دینگ
فص
قلیان
لینا
هنینگ
##الاش
میف
برعهدهٔ
##ونوس
راسکو
امنی
باشندگان
میلو
هوور
اسپایدر
##جاوه
بیشینهٔ
۶۰۵
##وروویچ
۳۷۱
احترامی
جفتهای
ریمون
طوفانهای
گاوس
ساردوئیه
لاپلاس
Santa
ژئوفیزیک
سربیشه
popes
اکستروژن
گلشیری
مساعدت
کمنظیر
بسر
سمو
شَ
شُ
##گالی
سالهایی
اوشن
میشه
ایزی
بیار
##ونیستها
خواری
خولیو
اتس
جنگیده
##کوویتسه
دورهی
##بعلی
کانوی
##دنبورگ
سویل
شوینده
کنترلر
##نسول
تیرانا
پاسخگوی
گرمایشی
##حلول
جورجی
پردازشی
آپول
بیاط
میکروبها
۴۱۸
گاوسی
کتف
قطارها
اینچئون
طباطبائی
1979
ریختند
تالابها
##oye
منزفیلد
ژئوپلی
ریزساختار
گالئاتزو
Cry
FP
arg
system
دوان
شیت
صمدی
##فاصل
یکسو
##یتان
سال۲۰۰
##یمان
کارابین
##برها
المت
##اکتو
##شکری
##ایتون
آبردین
##بوف
آرتریت
سوسیداد
شورلت
ملتی
ماراد
ماروین
دلش
اکری
سریعی
آوریم
طیور
##ساء
تیو
شرقشناسی
الیویه
سپاهش
موساشی
تریسته
رایجتر
شانسی
جزئیاتی
پریست
تارزان
استقرا
سایهها
ریاضت
هانسن
برچسبگذاری
فرضیههای
میچرخند
space
دقایقی
هرکولس
Turkey
مشیرالدوله
January
Virgin
David
جرثقیل
کنستانتینوپل
Ash
B2
خبی
شائو
لخ
وجد
##قندی
##گویان
##ورست
راجا
بودو
موحد
متل
آلمو
بنسون
کلاید
بلین
اکتیو
دریغ
آخرت
موتورسواری
تومورها
اشکوب
سبزها
مونتری
چرخها
۴۵۶
لنون
سناتورها
سرگرمیسازهای
۱۷۶۰
اوریون
##آشوب
پاهایش
نصیحت
بیباک
بیوشیمیایی
نابینایان
گالاتاسرای
سزاوار
آسیبدیدگی
جزیی
برمیخیزد
bu
داوی
سکا
ژست
##لۀ
##پتر
##ober
##TR
انکش
##راجی
##لاسیون
##جهت
کلینت
سازهٔ
##گریزی
گوتی
سیاستهایی
طبیعتی
اسکالر
رومان
##ئوتی
کروس
دایک
رابطهاش
اِم
##akh
۴۲۴
گودرز
مامان
کاوشها
تلگرافی
##َلَ
فیسلیفت
سخنرانان
والنتین
تاندون
اختتامیه
ازهمگسیخته
monobook
useskin
Hy
تابه
جولین
خض
##pa
##WA
##ودیم
میلا
##اتروس
یکسوم
##ترکی
اسراف
نیستی
##برم
پسرب
##اپل
مردمن
شمعون
بلال
##کارنو
کلیهها
محمدبن
مغربی
1984
عواید
احمدخان
سانرمو
تالابهای
دانشآموزی
آدمیان
۵۴۵
گودمن
تقدس
##ویوکی
##نمونه
ماجراجوی
##obile
وبسایتهای
مصریها
##تیمنت
موازنه
حقوقدانان
هیستامین
هردوی
شیزوئوکا
آمبرلا
آبنبات
mm
زوی
لینه
چرت
یَ
استاج
##اسنج
##گرز
تاچر
ویکلی
##اختصار
سیپی
##اکتور
ترنج
بخشند
تنومند
کتابچه
کوجی
شیط
##اگونا
مینوازد
تبعات
متعامد
##owice
تراکیه
سایتو
##aki
۴۳۲
همسایهها
مثلثاتی
##mann
1977
کافکا
کریستیانو
proper
ناکامورا
Exp
غیرمنتظر
موتیف
گزنفون
Hal
زیدان
ساه
نگو
کدها
##وجی
##عمال
##پوت
##استریت
امش
خودبه
ارضا
نمازی
ادوبی
مهین
میرجاوه
چندنفره
جامپ
نمیگردد
ولتر
##بلور
ویژن
عبارتست
##ika
تیرداد
combinations
آیندهوون
گذشتهاست
دالایی
فرامرزی
اندرونی
راسخ
شریانی
count
سرگرمیهای
یاسمین
عسلویه
میسوز
Moun
اربابی
میپنداشتند
خیرهکننده
چهاردانگه
آنومالی
ساوجبلاغ
Mach
Not
اویی
دکارتی
نوتس
##سهای
##tt
##هارد
##fe
بهاختصار
##یریک
گرینو
گربهای
##orge
فعالترین
آرال
مصطف
کامچات
##reen
پژواک
##یسیته
شهرداران
##شیرین
##وترن
۴۱۳
تپوریها
زراعتی
نکاح
##فارس
##ուր
بفهمد
سرامیکها
ملزومات
اجتنابناپذیر
79
EL
FA
GN
Sept
Ve
gov
فیم
مله
۹۲۰
##فکس
##فاکس
باارز
بیزاری
المانهای
نماي
##اصلی
اتکینسون
فرمانفرما
گیبس
هواپیماسازی
مهاجرتی
سروستان
سیروان
مسئولیتها
۴۲۹
۴۴۲
اونس
قارهها
شگفتزده
کلمبو
۱۶۰۳
هافبکهای
نورثروپ
گلاسکو
##وبلاست
نیگاتا
186
Jos
Lou
dec
km
آیدی
زاگ
لثه
پیتی
کایر
همارزی
##برق
دهۀ
مقاد
بارب
باربد
جایگذاری
##فهان
##روپل
اکید
مدرسی
نمییابد
استرن
آیسی
رواندرمانی
الیگ
ادارهکننده
توانستهاست
وینسلت
۳۸۲
Inf
۱۷۸۲
پیادهسازیهای
فرسایشی
مباحثی
دلیجان
خجالتی
توطئهای
آندرومدا
Records
دربردارنده
##تأثیر
دویسبورگ
96
MB
MM
OR
تانت
ذکا
شچ
##زویل
##حیم
##ել
ایوا
ادمونت
تنظیمی
شرارت
سنایی
حمامهای
##سراها
مردمک
مککل
##ولیز
##سمار
شوهران
محمده
کشتارهای
##وپروتئین
خردل
مونوکسید
نرود
سلسلهای
کوبیدن
فلزیاب
۶۱۲
دیمیت
سیارهها
##السلام
##مینگتون
while
لاکپشتهای
آتشنشان
فریتز
پارانژ
Network
ذینفعان
خداداد
Tooltip
Ext
FC
LL
bar
طوال
غرض
گید
##لج
##سوری
##شاپ
##DR
##غای
باث
##ومها
بازوها
##انوار
بدگ
##گوو
پیرزن
حضار
صدایش
##ely
کالو
یووه
